{
    "urd": 2799,
    "\u0120matters": 6067,
    "\u0120Avg": 33455,
    "stores": 43409,
    "oreal": 39396,
    "\u0120monitor": 5671,
    "\u0120\"-": 27444,
    "Charges": 36970,
    "\u0120caregivers": 45044,
    "\u0120varies": 17806,
    "Looks": 41102,
    "\u0120GIF": 24984,
    "\u0120mandatory": 13677,
    "\u0120Proof": 29999,
    "\u0120hemor": 42000,
    "Although": 7003,
    "\u0120AFP": 8916,
    "\u0120dips": 48904,
    "\u0120Robertson": 23590,
    "ulner": 5697,
    "ita": 5350,
    "\u0120preference": 12741,
    "\u0120Kay": 17356,
    "\u0120666": 43364,
    "Shut": 39079,
    "iya": 21008,
    "\u0120conspiracy": 10086,
    "546": 49489,
    "phalt": 41942,
    "\u0120refuel": 47874,
    "\u00c3\u0124": 5523,
    "initely": 12998,
    "208": 21315,
    "BILITY": 25382,
    "Spawn": 49855,
    "\u0120Flores": 40222,
    "\u0120slot": 10852,
    "amins": 24937,
    "igrated": 38769,
    "\u0120despised": 44990,
    "\u0120striking": 8871,
    "626": 45191,
    "pl": 489,
    "\u0120Powerful": 46308,
    "\u0120Yuk": 19760,
    "\u0120Belgium": 15664,
    "\u00e2\u0122\u0136\"": 19056,
    "AND": 6981,
    "\u0120battles": 10181,
    "\u0120disaster": 9336,
    "\u0120COL": 20444,
    "\u0120interfaces": 20314,
    "atic": 1512,
    "\u0120proficiency": 32102,
    "mitt": 20124,
    "Interview": 39945,
    "\u0120Aside": 28470,
    "\u0120Disaster": 35213,
    "\u0120vigilante": 49326,
    "\u0120take": 1011,
    "\u0120interests": 5353,
    "\u0120mourning": 33404,
    "\u0120passengers": 10405,
    "\u0120areas": 3006,
    "\u0120canv": 39614,
    "\u0120singer": 14015,
    "\u0120prototypes": 32338,
    "\u0120empirical": 21594,
    "dll": 12736,
    "\u0120leveraging": 42389,
    "\u0120Ferry": 42609,
    "\u0120fmt": 46996,
    "\u0120ongoing": 7044,
    "\u0120perched": 49264,
    "rm": 26224,
    "\u0120disability": 14013,
    "stress": 41494,
    "\u0120optimize": 27183,
    "spection": 31308,
    "ibling": 27448,
    "\u0120Rud": 17421,
    "\u0120trip": 5296,
    "499": 28324,
    "\u0120closest": 11706,
    "\u0120Proceedings": 30641,
    "\u0120Monarch": 41768,
    "writing": 16502,
    "mar": 3876,
    "\u0120vul": 24477,
    "\u0120helper": 31904,
    "\u0120surprisingly": 12362,
    "\u0120illiter": 45029,
    "Eric": 25004,
    "\u0120himself": 2241,
    "\u0120boiler": 36741,
    "\u0120=====": 29335,
    "\u0120acne": 32877,
    "\u0120PF": 28223,
    "\u0120cloning": 45973,
    "\u0120onslaught": 36847,
    "gem": 24090,
    "uries": 4740,
    "aeus": 46052,
    "\u0120prepared": 5597,
    "\u0120Jamaica": 31620,
    "\u0120Walk": 6857,
    "Sean": 26408,
    "\u0120setback": 34116,
    "\u0120et": 2123,
    "ST": 2257,
    "\u0120blood": 2910,
    "\u0120appalling": 34130,
    "\u0120MAC": 20582,
    "scient": 25346,
    "968": 38956,
    "\u0120Adjusted": 45624,
    "\u0120portray": 10993,
    "uit": 5013,
    "\u0120plur": 30676,
    "\u0120minimize": 17775,
    "Wars": 41508,
    "\u0120Humans": 27411,
    "itars": 27745,
    "\u0120Uncle": 23169,
    "changes": 36653,
    "577": 49447,
    "\u0120recru": 8921,
    "\u0120complexity": 13357,
    "\u0120ze": 41271,
    "\u0120slowly": 6364,
    "\u0120Laf": 31528,
    "church": 36964,
    "\u0120deforestation": 48152,
    "camp": 16544,
    "payment": 37301,
    "\u0120PARK": 42358,
    "\u0120moderators": 37265,
    "\u0120connected": 5884,
    "\u0120nons": 14011,
    "aging": 3039,
    "anged": 5102,
    "aga": 8126,
    "realDonaldTrump": 28024,
    "ochemical": 32864,
    "\u0120Hung": 12149,
    "\u0120RAID": 37450,
    "\u0120Wayne": 13329,
    "\u0120antid": 41744,
    "\u0120assorted": 46603,
    "nsics": 49242,
    "Many": 7085,
    "Dave": 27984,
    "\u00c4\u00b1": 30102,
    "\u0120ga": 31986,
    "\u0120Programs": 26179,
    "\u0120specialization": 43135,
    "\u0120psychiatrist": 31207,
    "owan": 45197,
    "park": 20928,
    "\u0120Olson": 31530,
    "\u0120chuck": 20539,
    "ishing": 3929,
    "\u0120Went": 29866,
    "\u0120distortion": 25100,
    "conservative": 43218,
    "\u0120Picard": 36614,
    "elta": 12514,
    "Meanwhile": 10294,
    "\u0120isolated": 11557,
    "\u0120diary": 26339,
    "fer": 2232,
    "\u0120thats": 29294,
    "\u0120oper": 1515,
    "aun": 1942,
    "\u0120worked": 3111,
    "\u0120Scion": 49632,
    "VID": 11008,
    "\u0120mentality": 21332,
    "fields": 25747,
    "\u0120Ops": 26123,
    "\u0120parted": 37813,
    "\u0120are": 389,
    "\u0120protesters": 9584,
    "\u0120Powder": 33688,
    "\u0120Danielle": 39808,
    "\u0120suppress": 18175,
    "Lean": 35806,
    "\u0120sweats": 39387,
    "\u0120Ni": 11556,
    "\u0120slated": 23488,
    "\u0120theirs": 22021,
    "\u0120ensued": 38597,
    "\u0120abide": 27851,
    "\u0120intruder": 48927,
    "ior": 1504,
    "\u0120remnants": 30468,
    "\u0120consider": 2074,
    "Catal": 39075,
    "::::::::": 43661,
    "\u0120buff": 6940,
    "\u0120apprehens": 31887,
    "\u0120disinteg": 29930,
    "ongo": 25162,
    "\u0120inherited": 19552,
    "\u0120evenly": 21894,
    "\u0120nood": 25099,
    "\u0120farm": 5318,
    "\u00c2\u00a9": 16224,
    "\u0120vampire": 23952,
    "\u0120monstrous": 29100,
    "nels": 19423,
    "chain": 7983,
    "\u0120speeds": 12055,
    "\u01201969": 16450,
    "\u0120unpleasant": 22029,
    "downs": 30371,
    "\u0120vigorous": 31543,
    "\u0120CPUs": 32340,
    "\u0120safeguards": 32673,
    "ultan": 30454,
    "ohm": 34028,
    "Pref": 36698,
    "earned": 39123,
    "\u0120adorned": 41860,
    "inet": 42504,
    "\u0120immigrants": 7971,
    "\u0120secession": 43314,
    "\u0120displays": 11298,
    "185": 21652,
    "\u01202050": 32215,
    "\u012076": 8684,
    "\u0120Pu": 11634,
    "\u0120icons": 17149,
    "\u0120froze": 37785,
    "\u0120relied": 17498,
    "\u0120struggles": 12766,
    "380": 23734,
    "\u0120bass": 12702,
    "\u0120expulsion": 38812,
    "645": 49259,
    "\u0120stages": 9539,
    "\u0120Shane": 24379,
    "\u0120next": 1306,
    "\u0120mas": 12422,
    "\u0120legit": 6984,
    "\u0120noble": 15581,
    "\u0120Picture": 17741,
    "\u0120transferred": 11172,
    "\u0120disastrous": 20756,
    "\u0120showcase": 21742,
    "oo": 2238,
    "698": 39357,
    "apping": 5912,
    "\u0120Down": 5588,
    "Consider": 19626,
    "\u0120FUN": 29397,
    "atari": 35554,
    "\u0120Penguin": 34424,
    "\u0120Highland": 39874,
    "\u0120discredited": 41882,
    "\u0120Kok": 35020,
    "\u0120encro": 45121,
    "\u0120recite": 46528,
    "\u0120OFFIC": 47601,
    "essa": 21411,
    "\u01201963": 19342,
    "\u0120talents": 18054,
    "\u0120ray": 26842,
    "izards": 14124,
    "\u0120FIL": 34020,
    "\u0120Dying": 41011,
    "outed": 18534,
    "sk": 8135,
    "\u0120hang": 8181,
    "\u0120Xan": 47482,
    "\u0120streaks": 48356,
    "\u0120Basin": 32666,
    "UA": 34970,
    "\u0120Those": 5845,
    "052": 37841,
    "\u0120behaviours": 38975,
    "\u0120disob": 30163,
    "\u0120Bro": 2806,
    "\u0120RX": 24202,
    "ossom": 25548,
    "}\\": 32239,
    "\u00c3\u0143n": 39588,
    "\u0120Petroleum": 39970,
    "Fr": 6732,
    "\u0120sincerely": 29093,
    "Improved": 35453,
    "\u0120ton": 5680,
    "Land": 22342,
    "ukemia": 43505,
    "\u00bc": 120,
    "\u0120decided": 3066,
    "EC": 2943,
    "\u0120brother": 3956,
    "rite": 6525,
    "\u0120el": 1288,
    "\u0120slew": 26891,
    "\u0120Exploration": 36806,
    "\u0120Sharif": 44144,
    "\u0120others": 1854,
    "\u0120imaging": 19560,
    "425": 32114,
    "\u0120Casting": 39285,
    "criminal": 45955,
    "\u0120February": 3945,
    "\u0120Palest": 5480,
    "\u0120television": 5581,
    "\u0120interpret": 6179,
    "\u0120asserts": 29348,
    "\u0120billions": 13188,
    "my": 1820,
    "\u0120implicit": 16992,
    "\u0120rudimentary": 47381,
    "\u0120pur": 1308,
    "\u0120Celebration": 44911,
    "\u0120Wan": 33242,
    "\u0120critical": 4688,
    "\u0120Hebdo": 39936,
    "irrel": 22793,
    "\u0120Azerb": 29740,
    "\u0120locker": 17355,
    "protection": 42846,
    "\u0120Kaplan": 37105,
    "\u0120Hilbert": 47718,
    "\u0120kickoff": 40532,
    "\u0120heavy": 4334,
    "iat": 5375,
    "\u0120lawsuit": 8087,
    "\u0120Spain": 8602,
    "ISE": 24352,
    "enery": 24156,
    "\u0120175": 19038,
    "\u0120huh": 24926,
    "\u0120striving": 34260,
    "\u0120NBN": 40841,
    "\u012023": 2242,
    "illi": 50173,
    "itals": 8321,
    "\u0120already": 1541,
    "\u0120Building": 11819,
    "\u0120Jeremy": 11753,
    "\u0120Columbus": 14939,
    "\u0120cup": 6508,
    "\u0120Barbara": 16685,
    "\u0120resisting": 28943,
    "\u0120Putin": 8144,
    "Or": 5574,
    "\u0120Crusader": 33765,
    "\u0120Engineer": 23164,
    "olding": 33266,
    "\u0120Flan": 39016,
    "Rail": 44631,
    "\u0120Cra": 11176,
    "\u0120Cyn": 31040,
    "\u0120commenter": 46914,
    "\u0120composition": 11742,
    "\u0120Leigh": 37907,
    "\u0120Pilot": 21697,
    "\u0120windshield": 38866,
    "\u0120counted": 14789,
    "Sn": 16501,
    "dL": 45582,
    "\u0120aiding": 37221,
    "\u0120storm": 6388,
    "ced": 771,
    "\u0120Primary": 21087,
    "\u0120ministry": 11957,
    "181": 27057,
    "DJ": 35028,
    "\u0120+---": 40703,
    "153": 21395,
    "\u0120fortnight": 46327,
    "\u0120artists": 7912,
    "\u0120sells": 16015,
    "\u0120attire": 37629,
    "\u0120Erie": 40911,
    "assing": 19696,
    "olutely": 16780,
    "\u0120orbits": 37015,
    "\u0120dearly": 46379,
    "\u0120expect": 1607,
    "urt": 3325,
    "\u0120includes": 3407,
    "\u0120Location": 13397,
    "\u0120assign": 8333,
    "roach": 28562,
    "\u0120consum": 2784,
    "\u00ed": 169,
    "\u0120municipal": 13474,
    "\u0120crossover": 27668,
    "\u0120miracle": 20820,
    "\u00c3\u00a5": 29090,
    "\u0120seals": 29718,
    "\u0120energy": 2568,
    "/#": 31113,
    "\u0120systemd": 31490,
    "Repeat": 40322,
    "\u0120invincible": 46038,
    "\u0120Lancet": 45122,
    "\u0120practically": 14547,
    "tie": 36224,
    "\u0120Laurent": 39734,
    "\u0120subjective": 19088,
    "\u0120affect": 2689,
    "\u0120cuff": 47291,
    "Adapter": 47307,
    "\u0120Romans": 22482,
    "\u0120MOT": 42982,
    "uesday": 3322,
    "\u0120hurricane": 23964,
    "research": 34033,
    "\u0120Kenobi": 46217,
    "\u0120Blair": 18520,
    "\u0120help": 1037,
    "\u0120Hyp": 21209,
    "\u0120Roz": 41334,
    "\u0120Country": 12946,
    "\u0120fantas": 23857,
    "ez": 8471,
    "ocumented": 17664,
    "imen": 19027,
    "\u0120dreams": 10625,
    "\u0120incarcerated": 33946,
    "acter": 7321,
    "DEM": 39429,
    "\u0120sociop": 41221,
    "\u0120eased": 44828,
    "ablished": 22555,
    "\u0120Vas": 23663,
    "\u0120Tayyip": 41346,
    "Python": 37906,
    "\u0120Lad": 12862,
    "\u0120metaphors": 49610,
    "RO": 13252,
    "\u0120encour": 4052,
    "bnb": 31971,
    "nell": 10076,
    "\u0120sque": 35776,
    "usr": 14629,
    "ios": 4267,
    "pread": 9681,
    "MT": 13752,
    "\u0120Huffington": 23807,
    "\u0120Precision": 39281,
    "\u0122": 222,
    "\u0120Tools": 20003,
    "\u00e2\u0126\u00a2:": 41333,
    "\u0120Incre": 10791,
    "Gam": 34777,
    "HE": 13909,
    "-------": 26866,
    "oplan": 46853,
    "\u012056": 7265,
    "\u0120buried": 11694,
    "Obj": 49201,
    "\u0120hub": 12575,
    "\u0120Detective": 20220,
    "Human": 20490,
    "\u0120detector": 31029,
    "modern": 23922,
    "ortunately": 4690,
    "ear": 451,
    "\u0120Eye": 14144,
    "\u0120Advisory": 23943,
    "\u0120describes": 8477,
    "472": 37856,
    ".):": 47308,
    "\u0120longest": 14069,
    "select": 19738,
    "\u0120ADHD": 22822,
    "Fest": 45139,
    "\u0120panic": 13619,
    "\u0120Voldemort": 26111,
    "\u0120rulings": 31532,
    "\u0120PCIe": 41825,
    "\u0120Jersey": 8221,
    "Im": 3546,
    "\u0120swimming": 14899,
    "layout": 39786,
    "\u0120applied": 5625,
    "\u0120budget": 4466,
    "\u0120pulling": 10427,
    "\u0120maintain": 5529,
    "David": 11006,
    "\u01201956": 25190,
    "1027": 40403,
    "\u0120drift": 24260,
    "\u0120improving": 10068,
    "\u0120periodic": 27458,
    "\u0120skeletons": 25612,
    "\u0120LIVE": 28323,
    "Gab": 46079,
    "\u0120INST": 40589,
    "\u0120revise": 32548,
    "\u0120clients": 7534,
    "\u0120Thib": 49486,
    "\u0120capitalist": 15098,
    "\u0120historic": 9566,
    "was": 9776,
    "\u0120Contract": 17453,
    "\u0120breathing": 12704,
    "eyed": 18834,
    "\u0120Fest": 26812,
    "uran": 42211,
    "\u0120holding": 4769,
    "\u0120auto": 8295,
    "\u0120gif": 9381,
    "\u0120eliminating": 18591,
    "\u0120Messages": 43534,
    "White": 12256,
    "\u0120av": 1196,
    "\u0120property": 3119,
    "eness": 9449,
    "Country": 33921,
    "\u0120administ": 2719,
    "orn": 1211,
    "\u012086": 9849,
    "\u0120Reno": 33817,
    "esson": 39670,
    "\u0120usable": 24284,
    "\u0120stationary": 31607,
    "\u0120LIMITED": 40880,
    "\u0120Gaal": 41308,
    "\u0120Amon": 42109,
    "\u0120refers": 10229,
    "ptoms": 35533,
    "leted": 33342,
    "\u0120summoning": 40292,
    "\u0120detectable": 44187,
    "doesn": 45084,
    "isa": 9160,
    "erers": 19288,
    "\u0120Rasmussen": 46549,
    "\u0120element": 5002,
    "\u0120Tanzania": 37270,
    "eers": 47619,
    "RG": 48192,
    "suggest": 47811,
    "ute": 1133,
    "\u0120contests": 22830,
    "1998": 21113,
    "vant": 4520,
    "\u0120chron": 16199,
    "\u0120exceed": 7074,
    "\u0120Lanka": 28143,
    "\u0120Altern": 13243,
    "\u0120us": 514,
    "Spot": 32565,
    "\u0120grazing": 40470,
    "\u0120Annex": 47036,
    "\u0120constitu": 12631,
    "App": 4677,
    "\u0120tile": 17763,
    "\u0120superflu": 48713,
    "\u0120Euros": 40745,
    "\u0120flames": 16209,
    "\u0120Hann": 14353,
    "\u0120enrich": 22465,
    "\u012b": 231,
    "\u0120Needless": 39114,
    "To": 2514,
    "\u0120grows": 13676,
    "long": 6511,
    "\u0120159": 26422,
    "\u0120discs": 31014,
    "\u0120Lost": 9164,
    "emaker": 32174,
    "qv": 44179,
    "\u0120Comfort": 45769,
    "\u0120stellar": 25041,
    "\u0120Expression": 41986,
    "\u0120optimistic": 16915,
    "\u0120toilets": 32711,
    "\u00e3\u0125\u00af\u00e3\u0125\u00b3": 42983,
    "jet": 31173,
    "\u0120residual": 29598,
    "\u0120differed": 36337,
    "\u0120applications": 5479,
    "\u0120ADV": 43685,
    "\u0120Miko": 49071,
    "Yan": 49664,
    "\u0120Request": 19390,
    "\u0120liquids": 38236,
    "Skip": 50232,
    "\u0120certificate": 10703,
    "udes": 8401,
    "\u0120Les": 11732,
    "\u0120\u00c2\u0142\u0120\u00c2\u0142": 11504,
    "node": 17440,
    "\u0120Battle": 5838,
    "\u0120BlackBerry": 30845,
    "\u0120mildly": 33544,
    "\u0120Underworld": 36198,
    "ppings": 37840,
    "\u0120wounding": 40942,
    "\u0120select": 2922,
    "ordable": 16819,
    "outine": 28399,
    "\u0120Latinos": 33877,
    "''''": 39115,
    "Isa": 39443,
    "\u0120inconsistencies": 40467,
    "\u0120wildfires": 48298,
    "\u0120excellence": 25230,
    "94": 5824,
    "\u0120gems": 23685,
    "\u0120realm": 13360,
    "\u0120Ps": 33610,
    "innie": 49708,
    "\u0120Flickr": 27085,
    "\u0120Clockwork": 47120,
    "par": 1845,
    "\u0120json": 33918,
    "Weak": 44898,
    "luaj": 36473,
    "\u0120desks": 44301,
    "socket": 44971,
    "ifting": 13309,
    "\u0120G": 402,
    "\u0120connection": 4637,
    "\u0120Dev": 6245,
    "idian": 19825,
    "ctica": 28914,
    "\u0120substantive": 28580,
    "Students": 28239,
    "\u0120absolutely": 5543,
    "\u0120jud": 2553,
    "\u0120patriot": 29408,
    "\u0120touted": 28275,
    "\u0120waging": 41747,
    "origin": 47103,
    "awks": 11890,
    "\u0120program": 1430,
    "\u0120RGB": 25228,
    "\u0120Haram": 33139,
    "\u0120demoral": 49077,
    "\u0120Vox": 28035,
    "\u0120outbreaks": 35198,
    "\u0120placed": 4624,
    "\u0120surf": 9053,
    "\u0120loopholes": 39178,
    "bringer": 48046,
    "\u0120slowing": 21605,
    "\u0120Alberto": 40649,
    "modules": 18170,
    "\u0120fears": 10251,
    "\u00e3\u0125\u00af": 25589,
    "EMA": 27630,
    "\u0120fn": 24714,
    "\u0120Wrestling": 29662,
    "------------------------------------------------": 47232,
    "terror": 14007,
    "rez": 21107,
    "\u0120valleys": 43088,
    "ante": 12427,
    "\u0120respectively": 8148,
    "\u0120nutrit": 44867,
    "\u0120cocaine": 15144,
    "\u0120concern": 2328,
    "685": 35978,
    "\u0120to": 284,
    "\u0120ev": 819,
    "\u0141": 253,
    "\u0120continents": 33431,
    "\u0120Falcon": 17621,
    "\u01201966": 19322,
    "actly": 24342,
    "\u0120sender": 29788,
    "division": 21426,
    "requires": 47911,
    "liament": 5130,
    "\u0120farms": 15893,
    "conference": 41124,
    "ophon": 48982,
    "\u00e3\u0123\u00ae\u00e7": 17683,
    "\u0120laying": 16299,
    "ollar": 13228,
    "adal": 31682,
    "\u0120manslaughter": 35083,
    "\u0120Paid": 47355,
    "ugu": 45284,
    "\u0120sincerity": 44053,
    "\u0120emit": 27588,
    "\u0120apiece": 47563,
    "ynchronous": 31301,
    "\u0120DRAG": 44779,
    "\u0120haul": 25647,
    "arre": 9624,
    "\u0120scans": 23824,
    "\u0120awa": 14908,
    "Registered": 47473,
    "\u0120streets": 6483,
    "\u0120Judge": 8974,
    "\u0120plastic": 7309,
    "\u0120calculated": 10488,
    "\u0120Healing": 22508,
    "otten": 4728,
    "rypted": 15109,
    "\u0120choir": 42644,
    "\u0120Vessel": 44734,
    "\u0120Art": 3683,
    "\u0120hashing": 49544,
    "guyen": 39922,
    "\u0120Jag": 35687,
    "\u0120shipments": 29311,
    "\u0120Puzz": 27985,
    "Boost": 45686,
    "\u0120crowds": 15779,
    "\u0120serv": 1113,
    "annie": 42883,
    "II": 3978,
    "\u0120persu": 10722,
    "\u0120collecting": 13157,
    "henko": 30161,
    "ansky": 49792,
    "inki": 38799,
    "\u0120rs": 44608,
    "\u0120Charg": 14797,
    "\u0120maj": 16486,
    "\u0120Zion": 16899,
    "\u0120positively": 19888,
    "Kelly": 34831,
    "\u0120Val": 3254,
    "\u0120evidence": 2370,
    "\u0120relieve": 26958,
    "060": 41322,
    "Nich": 46489,
    "\u0120fill": 6070,
    "\u0120Drone": 38959,
    "441": 39710,
    "\u0120propagation": 43594,
    "\u0120Rom": 3570,
    "\u0120means": 1724,
    "\u00b6": 114,
    "\u0120Arbor": 30455,
    "\u0120Osc": 40203,
    "\u013b\u00bd": 50159,
    "\u0120burial": 23867,
    "ension": 3004,
    "\u0120furthe": 46186,
    "\u0120Wire": 14712,
    "\u0120nu": 14364,
    "\u0120community": 2055,
    "Everyone": 16190,
    "\u0120Ku": 12554,
    "\u0120Wii": 16591,
    "ikhail": 39065,
    "\u0120Declaration": 24720,
    "KK": 16601,
    "\u0120Jew": 3370,
    "\u0120failure": 5287,
    "Syn": 29934,
    "Davis": 36462,
    "\u0120joints": 24039,
    "\u0120Rocket": 16920,
    "\u0120starvation": 32143,
    "uph": 25689,
    "\u0120landslide": 36348,
    "ashington": 2542,
    "\u0120Iowa": 9406,
    "\u0120troubles": 14979,
    "\u0120Downtown": 25657,
    "\u0120Italian": 8200,
    "ISO": 40734,
    "\u0120postpone": 47328,
    "urous": 29277,
    "\u00e2\u0136\u0123": 47486,
    "Avg": 48997,
    "\u00ef\u00bf\u00bd": 4210,
    "\u0120168": 23378,
    "\u0120Xin": 25426,
    "\u0120tweets": 12665,
    "\u0120fibre": 33073,
    "\u0120angled": 48719,
    "\u0120deal": 1730,
    "crop": 31476,
    "\u0120Trees": 34925,
    "Magn": 48017,
    "\u0120dangling": 47270,
    "Thom": 37582,
    "\u0120opioid": 23039,
    "\u0120laborers": 41075,
    "join": 22179,
    "\u0120Minneapolis": 20455,
    "racuse": 28268,
    "reci": 29102,
    "Press": 13800,
    "Located": 43525,
    "\u0120Hor": 6075,
    "omin": 6351,
    "some": 11246,
    "\u0120sensed": 39243,
    "545": 45326,
    "\u0120455": 46839,
    "ucked": 17758,
    "CAST": 44647,
    "\u0120versions": 6300,
    "Executive": 43885,
    "prop": 22930,
    "\u0120IO": 24418,
    "163": 24136,
    "\u0120Auburn": 24579,
    "\u0120Lucia": 48158,
    "insula": 16495,
    "\u0120Quint": 33405,
    "\u0120OCT": 42256,
    "Force": 10292,
    "uu": 12303,
    "\u0120Oliv": 40019,
    "\u0120overr": 23170,
    "excluding": 42218,
    "\u0120Guth": 44003,
    "feeding": 22824,
    "\u0120commissioner": 16248,
    "test": 9288,
    "\u0120Cathy": 40636,
    "\u0120vill": 4489,
    "\u0120showc": 21876,
    "\u0120courts": 8028,
    "\u0120Galaxy": 9252,
    "\u0120fences": 35771,
    "\u0120Eater": 40366,
    "\u0120&": 1222,
    "\u0120Eve": 12882,
    "\u0120entail": 39793,
    "\u0120deprecated": 39224,
    "\u0120Temp": 24189,
    "\u0120Lounge": 36333,
    "\u0120blankets": 34794,
    "\u0120laughable": 47623,
    "ardon": 19917,
    "\u0120weekly": 10273,
    "\u012020": 1160,
    "\u0120Sept": 2362,
    "\u0120acquisition": 12673,
    "\u0120potentially": 6196,
    "\u0120sort": 3297,
    "seen": 15898,
    "\u01201968": 15963,
    "\u0120prisoner": 17234,
    "\u0120educate": 20771,
    "adas": 38768,
    "\u0120houses": 7777,
    "\u0120caf\u00c3\u00a9": 40304,
    "514": 47396,
    "auder": 29233,
    "\u0120mortar": 29871,
    "LC": 5639,
    "\u0120expl": 1193,
    "Wik": 33010,
    "\u0120ISP": 33086,
    "\u0120Furn": 34937,
    "\u0120DSM": 37297,
    "\u0120Record": 13266,
    "ORN": 30649,
    "\u0120Donation": 41654,
    "\u0120nodd": 13177,
    "\u0120biologist": 35261,
    "kins": 5331,
    "\u0120Adventures": 15640,
    "\u0120Piercing": 47066,
    "anke": 49200,
    "\u0120IPM": 50200,
    "\u0120democr": 5084,
    "Storm": 32173,
    "\u0120Grimoire": 43077,
    "\u0120proceeding": 18788,
    "aut": 2306,
    "Against": 39276,
    "\u0120import": 1330,
    "\u0120pillow": 28774,
    "pract": 29152,
    "cases": 33964,
    "\u0120Koran": 44097,
    "\u0120ABV": 49993,
    "With": 3152,
    "\u0120erupt": 17866,
    "\u0120orchestr": 28127,
    "\u0120bushes": 37413,
    "ulations": 5768,
    "\u0120Pegasus": 48188,
    "xiety": 35753,
    "fd": 16344,
    "\u0120orthodox": 28299,
    "\u0120Gears": 46680,
    "elman": 32370,
    "\u0120wielding": 33949,
    "\u0120speak": 2740,
    "79": 3720,
    "\u0120Torn": 31940,
    "\u0120tremendously": 34355,
    "\u00e3\u0123\u00af": 31676,
    "\u0120Ricky": 31668,
    "GH": 17511,
    "ovation": 17882,
    "\u0120stabilization": 43200,
    "Fri": 30214,
    "anks": 2283,
    "\u0120refere": 6773,
    "\u012082": 9415,
    "Stud": 13007,
    "\u0120verte": 30362,
    "\u0120CT": 16356,
    "\u0120gigg": 30442,
    "\u0120Instead": 5455,
    "orld": 1764,
    "\u0120resulting": 7186,
    "\u0120Territory": 25219,
    "ich": 488,
    "\u0120Another": 6023,
    "\u0120tunnel": 13275,
    "\u0120downloading": 22023,
    "\u0120[\u00e2\u0122\u00a6]": 23834,
    "Ox": 38208,
    "\u0120obnoxious": 43283,
    "abases": 18826,
    "\u0120Include": 40348,
    "\u0120PRODUCT": 41458,
    "\u00e7\u013e": 40367,
    "where": 3003,
    "\u0120acceptance": 13427,
    "\u0120Motion": 20843,
    "\u0120shields": 21132,
    "\u0120whom": 4150,
    "\u0120orbs": 37403,
    "\u0120pollut": 36156,
    "Lua": 36127,
    "\u0120Spark": 17732,
    "\u0120simul": 39698,
    "\u0120fuelled": 49425,
    "N": 45,
    "ifty": 24905,
    "depth": 18053,
    "507": 35378,
    "\u0120pav": 45549,
    "\u0120Parents": 28231,
    "\u0120recycle": 48914,
    "\u012070": 4317,
    "isk": 1984,
    "\u0120id": 4686,
    "\u0120festivities": 42735,
    "029": 48891,
    "\u0120depending": 6906,
    "\u0120Dane": 42999,
    "\u0120Component": 35100,
    "\u0120Caption": 11260,
    "aha": 12236,
    "ayed": 16548,
    "\u0120Bart": 13167,
    "\u0120weighed": 20261,
    "icrobial": 48518,
    "\u0120Painting": 48892,
    "\u0120mindset": 20527,
    "\u0120Phen": 34828,
    "\u0120lavish": 38957,
    "\u0120snippet": 39442,
    "\u0120surve": 6549,
    "\u0120ticket": 7846,
    "entimes": 43598,
    "pper": 2848,
    "EXT": 13918,
    "\u0120231": 34598,
    "\u0120Trinity": 22844,
    "\u0120horr": 12731,
    "\u0120quarterback": 7880,
    "\u0120sentiment": 15598,
    "onica": 32752,
    "\u0120Pleasant": 35469,
    "\u0120Newfoundland": 43867,
    "riger": 18096,
    "\u0120blender": 40047,
    "V": 53,
    "\u0120motives": 21508,
    "\u0120Increases": 23920,
    "\u0120gly": 13874,
    "\u0120CPC": 41190,
    "Blog": 42383,
    "push": 14689,
    "geist": 49782,
    "\u0120scale": 5046,
    "tight": 33464,
    "olics": 19615,
    "\u01201951": 27937,
    "ange": 858,
    "\u0120tasked": 23052,
    "\u0120NOTICE": 28536,
    "PsyNetMessage": 28666,
    "Lead": 20451,
    "ick": 624,
    "\u0120taught": 7817,
    "\u0120screw": 9580,
    "\u0120shifts": 15381,
    "category": 22872,
    "successfully": 37351,
    "\u0120Italians": 41720,
    "\u0120Deborah": 36976,
    "NECT": 48842,
    "\u0120death": 1918,
    "otic": 6210,
    "\u0120swirl": 42835,
    "ocaust": 16377,
    "bands": 21397,
    "ief": 2086,
    "themed": 26966,
    "\u0120disposed": 29947,
    "\u0120Auction": 36071,
    "\u0120Quantity": 39789,
    "avering": 42610,
    "\u0120&&": 11405,
    "\u0120constituency": 28280,
    "\u0120seminal": 38915,
    "\u0120anyone": 2687,
    "\u0120representations": 24612,
    "\u0120governor": 8153,
    "leaning": 25909,
    "\u0120perimeter": 25317,
    "\u0120amount": 2033,
    "\u0120Ped": 13457,
    "\u0120Adapt": 30019,
    "\u0120Raj": 13308,
    "\u0120sideways": 35303,
    "Campaign": 46102,
    "\u0120ROB": 36449,
    "\u0120Steven": 8239,
    "\u0120contraceptives": 45295,
    "\u0120felon": 46849,
    "\u0120virginity": 48533,
    "\u0120events": 2995,
    "\u0120Chester": 26943,
    "idepress": 25895,
    "\u0120ans": 9093,
    "\u0120supposed": 4385,
    "\u0120Flat": 21939,
    "token": 30001,
    "margin": 36153,
    "\u01201440": 49557,
    "ocl": 38679,
    "\u01201888": 49584,
    "\u0120sought": 7194,
    "\u0120hue": 37409,
    "roller": 10646,
    "\u0120ph": 872,
    "\u0120showed": 3751,
    "\u012039": 5014,
    "\u0120Sports": 7092,
    "ew": 413,
    "\u0120ho": 8169,
    "\u0120vend": 10817,
    "\u0120smartphone": 11745,
    "\u0120Danger": 20419,
    "\u01201955": 25325,
    "\u0120pens": 29707,
    "\u0120thin": 7888,
    "\u0120Michel": 12386,
    "\u0120Nap": 14332,
    "\u0120Apparently": 18626,
    "\u0120Twilight": 19715,
    "\u0120purple": 14032,
    "ms": 907,
    "455": 30505,
    "\u0120shores": 29963,
    "\u012057": 7632,
    "\u0120chapters": 15754,
    "\u0120\u00ce\u00b2": 27169,
    "\u0120Shields": 30512,
    "terness": 34697,
    "\u0120rapes": 37459,
    "\u0120Artists": 37599,
    "\u0120Hurricanes": 39419,
    "quickShipAvailable": 39753,
    "\u0120reminders": 40687,
    "1974": 40828,
    "\u0120lacks": 16523,
    "\u0120courageous": 34010,
    "\u0120283": 42032,
    "IC": 2149,
    "\u0120warnings": 14601,
    "\u0120UR": 37902,
    "ream": 1476,
    "\u0120purposely": 39033,
    "\u0120Smoking": 39801,
    "\u0120Magic": 6139,
    "\u0120cort": 12794,
    "esame": 34038,
    "103": 15197,
    "\u0120Customs": 23888,
    "\u0120brutally": 30040,
    "fail": 32165,
    "\u0120systemic": 21971,
    "\u0120column": 5721,
    "Async": 42367,
    "Circ": 31560,
    "\u0120earthquake": 16295,
    "\u01201958": 24648,
    "\u0120excluded": 15009,
    "\u0120drums": 24730,
    "livion": 26018,
    "\u0120Vor": 44143,
    "\u0120Avalon": 39600,
    "\u0120sarc": 40638,
    "abs": 8937,
    "\u0120reducing": 8868,
    "\u0120transmitted": 18307,
    "\u0120Tab": 16904,
    "Sty": 18716,
    "lem": 10671,
    "\u0120chick": 17943,
    "OPE": 32135,
    "\u0120derivative": 27255,
    "\u0120stove": 27635,
    "\u0120unex": 8522,
    "\u0120squid": 45126,
    "\u0120\u00e2\u0122\u0135": 784,
    "COMPLE": 41335,
    "\u0120naughty": 45128,
    "ivation": 26939,
    "INO": 46016,
    "\u0120terrain": 15510,
    "Bitcoin": 22614,
    "\u0120EN": 12964,
    "\u0120slam": 21158,
    "\u0120NSW": 23438,
    "_": 62,
    "\u0120defunct": 49119,
    "\u0120hemp": 28246,
    "\u0120Teachers": 32426,
    "\u0120Iv": 16975,
    "\u0120Grimes": 49462,
    "\u0120prophetic": 49054,
    "\u0120christ": 33826,
    "\u0120neighbourhoods": 45221,
    "\u0120UNESCO": 49372,
    "\u0120gland": 37917,
    "\u0120allowances": 42290,
    "idation": 24765,
    "\u0120LAR": 47211,
    "pair": 24874,
    "\u0120Infantry": 27749,
    "Polit": 39866,
    "\u0120321": 39595,
    "ance": 590,
    "\u0120loved": 6151,
    "\u0120remembrance": 44827,
    "\u0120fundamentally": 17640,
    "\u0120scenery": 31068,
    "\u0120anecdotal": 41666,
    "\u0120concentration": 10368,
    "\u0120restruct": 27596,
    "\u0120ecc": 21399,
    "\u0120Westbrook": 35345,
    "physical": 42854,
    "\u0120stances": 47814,
    "041": 50049,
    "\u0120fut": 13294,
    "\u0120frag": 7956,
    "\u0120nested": 28376,
    "farm": 43323,
    "\u0120lockdown": 47955,
    "\u0120courthouse": 33625,
    "\u0120garbage": 15413,
    "Hillary": 20397,
    "\u0120sacked": 32564,
    "\u0120geography": 27876,
    "everything": 37814,
    "\u01208000": 38055,
    "\u0120Notification": 42808,
    "\u0120Soda": 43006,
    "\u0120squadron": 40733,
    "\u0120Princess": 8449,
    "skirts": 28383,
    "\u0120UPDATE": 35717,
    "\u0120SUR": 41016,
    "apse": 7512,
    "sis": 13429,
    "\u0120kind": 1611,
    "\u0120diamond": 15291,
    "\u0120Birth": 17647,
    "\u0120extremism": 25571,
    "Ch": 1925,
    "Language": 32065,
    "Sports": 18153,
    "urnal": 35735,
    "upt": 37623,
    "Russ": 10020,
    "99": 2079,
    "\u0120RCMP": 28797,
    "\u0120painful": 12132,
    "\u0120repl": 2186,
    "rike": 8760,
    "\u0120Join": 15251,
    "\u0120correction": 17137,
    "\u0120Agriculture": 19717,
    "\u0120refriger": 19866,
    "\u0120Fowler": 33693,
    "\u0120ousted": 37822,
    "wordpress": 40346,
    "\u0120Wal": 6445,
    "\u0120increments": 41867,
    "\u0120victory": 5373,
    "\u0120Marine": 11000,
    "\u0120yacht": 43207,
    "\u0120Ov": 46941,
    "\u0120Beth": 19223,
    "\u0120Vul": 25442,
    "\u0120rumored": 29586,
    "\u0120forceful": 42262,
    "Privacy": 48948,
    "soft": 4215,
    "\u0120conducting": 14523,
    "\u0120Farmers": 34982,
    "\u0120warehouse": 20933,
    "\u0120because": 780,
    "\u0120unanswered": 34001,
    "\u0120Sponge": 42681,
    "\u0120compet": 2307,
    "tw": 4246,
    "\u0120murd": 7847,
    "\u0120sacrific": 13751,
    "\u0120ensl": 25563,
    "\u0120initial": 4238,
    "\u0120ro": 686,
    "\u0120lone": 13497,
    "oyer": 35301,
    "Ground": 35539,
    "ycle": 39297,
    "\u0120GoPro": 49789,
    "\u0120tech": 7261,
    "jriwal": 39890,
    "\u0120responsiveness": 49815,
    "\u0120detainees": 25027,
    "maxwell": 29047,
    "press": 8439,
    "Extra": 27726,
    "\u0120convict": 38309,
    "\u0120FR": 8782,
    "\u0120mammoth": 44268,
    "\u0120embedded": 14553,
    "\u0120lately": 16537,
    "\u0120incentiv": 39678,
    "zed": 8863,
    "\u0120accessed": 17535,
    "lie": 14485,
    "\u0120varying": 15874,
    "Lord": 22438,
    "\u01201930": 15533,
    "\u0120davidjl": 23282,
    "Intel": 24123,
    "\u00e9\u00be\u012f\u00e5": 19049,
    "\u0120ants": 27842,
    "\u0120Organic": 31734,
    "\u0120participants": 6809,
    "\u0120flourish": 31147,
    "\u0120Cargo": 41061,
    "\u0120Pork": 44062,
    "\u0120sd": 45647,
    "\u0120Pend": 36865,
    "unci": 49652,
    "\u0120vehicle": 4038,
    "GI": 18878,
    "\u0120canal": 29365,
    "\u0120Hau": 49696,
    "\u0120innoc": 7909,
    "\u0120percentages": 28071,
    "Jam": 30380,
    "\u0120Flake": 39727,
    "\u0120press": 1803,
    "herent": 8334,
    "\u0120occasionally": 10491,
    "internal": 32538,
    "mort": 30171,
    "\u0120correctly": 9380,
    "\u0120Write": 19430,
    "\u0120convicted": 9118,
    "\u0120socially": 18118,
    "\u0120Recorded": 50096,
    "\u0120excess": 6992,
    "\u0120density": 12109,
    "\u0120pops": 26384,
    "\u0120Sail": 27783,
    "readable": 46155,
    "\u0120Scrib": 44469,
    "\u0120end": 886,
    "\u0120Trance": 47215,
    "quickShip": 39752,
    "unes": 4015,
    "\u0120honest": 5508,
    "\u0120horror": 9961,
    "inance": 14149,
    "\u0120status": 3722,
    "etheus": 36916,
    "\u0120Mik": 17722,
    "\u0120exoner": 43507,
    "\u0120Confederation": 47186,
    "\u0120mysql": 48761,
    "\u0120fian": 41668,
    "\u0120Haiti": 25051,
    "\u0120Committees": 27808,
    "dullah": 23969,
    "\u0120injure": 42206,
    "\u012030": 1542,
    "includes": 42813,
    "\u0120Gilmore": 47169,
    "\u0120Emmy": 33953,
    "reens": 5681,
    "\u0120shade": 17979,
    "\u0120graph": 4823,
    "\u0120recognizable": 30264,
    "q": 80,
    "\u0120besides": 13769,
    "\u0120delight": 10974,
    "\u0120illustrated": 18542,
    "\u0120Xia": 22450,
    "\u0120wartime": 35382,
    "\u0120Prelude": 46897,
    "\u0120a": 257,
    "======": 50155,
    "\u0120lun": 14678,
    "\u0120antenna": 20509,
    "\u0120Pe": 2631,
    "\u0120Laden": 19402,
    "legal": 18011,
    "Shadow": 27447,
    "\u0120telephone": 11426,
    "\u0120Founder": 30153,
    "\u0120Warrant": 33872,
    "utch": 7140,
    "\u0120coin": 10752,
    "\u0120twitter": 17044,
    "Andy": 35314,
    "\u0120Tart": 37109,
    "CHAR": 38019,
    "960": 39277,
    "\u0120Comey": 12388,
    "\u0120DISTRICT": 45057,
    "\u0120KE": 47134,
    "\u0120Olympic": 11514,
    "\u0120Bullets": 39984,
    "].": 4083,
    "overy": 6560,
    "162": 25061,
    "\u0120GRE": 19928,
    "\u0120bold": 10758,
    "\u0120Skype": 25254,
    "Release": 26362,
    "\u0120Nixon": 16642,
    "icultural": 26823,
    "\u0120balcon": 26857,
    "lla": 8466,
    "\u0120exclusion": 19328,
    "TED": 36493,
    "\u0120patriotism": 36994,
    "\u0120monastery": 38139,
    "\u0120genome": 19270,
    "\u0120electric": 5186,
    "\u0120fever": 17372,
    "\u0120boom": 14166,
    "\u0120specifies": 26052,
    "\u0120liquid": 8122,
    "\u0120lodged": 31984,
    "PI": 11901,
    "\u0120Deadly": 26991,
    "559": 38605,
    "arian": 3699,
    "\u0120Seoul": 22372,
    "\u0120sweetness": 32073,
    "Cass": 43529,
    "\u0120overall": 4045,
    "\u0120fit": 4197,
    "\u0120awhile": 27416,
    "\u0120bc": 47125,
    "\u0120Occupations": 48227,
    "\u0120Wolfgang": 48566,
    "oppable": 35628,
    "cone": 49180,
    "\u0120initiated": 16862,
    "\u0120illum": 16116,
    "itas": 21416,
    "\u0120wil": 39716,
    "Integer": 46541,
    "Pont": 48039,
    "\u0120contractors": 17736,
    "\u0120covenant": 28173,
    "\u0120Authorities": 30756,
    "\u0120PHOTO": 41153,
    "VB": 44526,
    "\u0120Liberty": 14734,
    "Ty": 25492,
    "\u0120Dancing": 31799,
    "\u0120sock": 32263,
    "\u0120Nest": 21420,
    "\u0120misery": 24672,
    "olia": 22703,
    "\u0120typical": 7226,
    "dam": 11043,
    "\u0120Clar": 15420,
    "20": 1238,
    "Example": 16281,
    "\u0120Late": 18319,
    "\u0120weaknesses": 20256,
    "\u0120intervene": 22432,
    "\u0120scope": 8354,
    "hd": 31298,
    "stasy": 31695,
    "\u0120McLaren": 33017,
    "\u0120Introduced": 16745,
    "\u0120Worker": 35412,
    "\u0120Ultra": 14563,
    "iz": 528,
    "\u0120exporting": 39133,
    "\u0120Beware": 49538,
    "\u0120substr": 47294,
    "\u0120dad": 9955,
    "\u0120susceptibility": 43304,
    "\u0120XT": 44235,
    "igenous": 12357,
    "Done": 45677,
    "\u0120lib": 9195,
    "Initially": 40443,
    "\u0120frontman": 49250,
    "\u0120rede": 21459,
    "\u0120Haz": 17064,
    "\u0120particular": 1948,
    "\u0120194": 30483,
    "Focus": 34888,
    "OUNT": 28270,
    "\u0120troublesome": 35778,
    "\u0120slay": 42596,
    "\u00e2": 158,
    "Cath": 39581,
    "iris": 29616,
    "\u0120classmate": 45222,
    "\u0120evaluates": 47850,
    "\u0120criticism": 7734,
    "\u0120mosquito": 35446,
    "\u0120stigmat": 43603,
    "\u0120empires": 44982,
    "KNOWN": 44706,
    "\u0120public": 1171,
    "\u0120disembark": 46804,
    "\u0120licensee": 35796,
    "NF": 21870,
    "omers": 21499,
    "pired": 6474,
    "\u0120marquee": 50089,
    "AMI": 43870,
    "\u0120Mac": 4100,
    "etch": 7569,
    "\u0120built": 3170,
    "\u0120Pl": 1345,
    "\u0120proposes": 26017,
    "AAF": 38540,
    "\u0120Woo": 39832,
    "Cow": 40147,
    "Effects": 47738,
    "\u0120244": 35264,
    "\u0120Expl": 5905,
    "offic": 14406,
    "\u0120Ruth": 22132,
    "\u0120Mayweather": 38718,
    "Def": 7469,
    "\u0120Jimmy": 12963,
    "\u0120Valkyrie": 23620,
    "tracking": 36280,
    "\u0120celebrate": 10648,
    "xb": 30894,
    "\u0120manufact": 4011,
    "Rs": 31273,
    "rab": 25619,
    "\u0120enlist": 33858,
    "759": 38314,
    "\u0120feed": 3745,
    "\u00d8\u00af": 38843,
    "603": 35642,
    "oris": 37279,
    "89": 4531,
    "tg": 25297,
    "\u0120Dixon": 31178,
    "\u0120venue": 14359,
    "\u0120underrated": 42308,
    "ousy": 41808,
    "\u0120fair": 3148,
    "Kansas": 43451,
    "\u0120Deadline": 35954,
    "bucks": 18999,
    "\u0120theorist": 46410,
    "\u0120Others": 12691,
    "\u0120scaling": 20796,
    "\u0120wetlands": 49297,
    "EXP": 49864,
    "\u0120Trafford": 41107,
    "\u0120Babe": 49624,
    "\u0120cycles": 16006,
    "\u0120revamped": 43814,
    "\u0120combining": 19771,
    "\u0120Mondays": 49748,
    "\u0120Iraqis": 34956,
    "\u0120Jindal": 49816,
    "\u0120Cinema": 31535,
    "\u0120spirituality": 39409,
    "\u0120unorthodox": 49830,
    "\u0120rationale": 25738,
    "\u0120incredibly": 8131,
    "\u0120seemed": 3947,
    "SW": 17887,
    "\u0120temples": 27081,
    "\u0120listens": 35019,
    "\u0120accompan": 10600,
    "\u0120customization": 31344,
    "\u0120Ble": 17175,
    "\u0120intuition": 31563,
    "\u0120image": 2939,
    "\u0120poker": 27101,
    "@#": 41573,
    "\u0120Explosion": 45742,
    "\u0120Discrimination": 49298,
    "\u0120conceded": 24684,
    "\u0120evoke": 44672,
    "\u0120Ramsay": 47959,
    "\u0120anesthesia": 49592,
    "High": 11922,
    "\u0120Ivanka": 31002,
    "\u0120rec": 664,
    "\u0120student": 3710,
    "\u0120des": 748,
    "ulated": 4817,
    "\u00e2\u0136": 6552,
    "\u0120sealed": 15283,
    "Beg": 24586,
    "moil": 25538,
    "\u0120Cafe": 26965,
    "\u0120reactors": 28502,
    "Bill": 17798,
    "\u0120Philippines": 13316,
    "\u0120jelly": 27644,
    "\u0120Vaugh": 30856,
    "\u0120freezer": 30967,
    "always": 33770,
    "\u0120numb": 35519,
    "\u0120disk": 11898,
    "Fail": 39044,
    "\u0120trenches": 40068,
    "gres": 34239,
    "\u0120allegedly": 7910,
    "EU": 19684,
    "aina": 42183,
    "\u0120embodied": 34413,
    "\u0120Regulatory": 38018,
    "\u0120Goodbye": 44442,
    "\u0120spark": 9009,
    "\u0120intense": 8157,
    "\u0120-------": 35656,
    "odge": 9728,
    "\u0120Launcher": 26385,
    "\u0120Scream": 36306,
    "\u0120rave": 46242,
    "\u0120aliases": 47217,
    "tick": 42298,
    "\u0120Gi": 8118,
    "anted": 4126,
    "652": 43193,
    "uliffe": 45228,
    "\u0120aided": 28310,
    "\u00e3\u0125\u00bb": 4707,
    "astical": 32044,
    "\u0120outings": 47280,
    "TY": 9936,
    "Further": 13518,
    "\u0120agreeing": 24093,
    "\u0120Mineral": 30000,
    "\u0120summ": 30114,
    "Sport": 42576,
    "\u0120vice": 7927,
    "\u0120coronary": 37151,
    "\u0120remembers": 18140,
    "\u0120Nate": 23486,
    "Fresh": 35857,
    "\u0120housing": 5627,
    "\u0120surprising": 6452,
    "\u0120offender": 19595,
    "\u0120NI": 24947,
    "\u0120Pip": 25149,
    "\u0120Been": 36844,
    "ind": 521,
    "\u0120dstg": 36935,
    "\u0120Gord": 39592,
    "\u0120Sadd": 20454,
    "eneg": 46495,
    "\u0120Scorpion": 48821,
    "Rush": 49942,
    "\u0120mechanic": 21600,
    "\u0120sleeves": 27409,
    "ocally": 44190,
    "\u0120Tact": 15324,
    "inent": 7233,
    "\u0120Instructor": 47839,
    "\u0120Concert": 39220,
    "ainted": 14215,
    "\u0120Bud": 10370,
    "\u0120behavi": 6598,
    "\u00c9": 133,
    "\u0120linkage": 45945,
    "\u0120tame": 37812,
    "\u0120Brewing": 19321,
    "\u0120beginning": 3726,
    "@@@@": 22675,
    "BM": 12261,
    "requently": 37971,
    "\u0120measure": 3953,
    "\u0120motion": 6268,
    "\u0120captures": 23007,
    "\u0120swamp": 26837,
    "\u0120crops": 14450,
    "\u0120CRA": 33416,
    "\u0120Prophet": 13583,
    "\u0120Patrol": 20989,
    "ility": 879,
    "\u0120tum": 11814,
    "ption": 1159,
    "\u0120sophomore": 24505,
    "\u0120submar": 18249,
    "\u0120worries": 18572,
    "\u0120settling": 25446,
    "AGES": 25552,
    "\u00e2\u0122\u00a6..": 30864,
    "\u0120CTR": 34577,
    "\u0120tends": 12444,
    "\u0120tube": 12403,
    "Represent": 40171,
    "Robin": 40656,
    "\u0120blight": 42514,
    "appiness": 42661,
    "\u0120grassroots": 23783,
    "\u0120crypt": 8194,
    "\u0120mol": 18605,
    "\u0120finest": 18822,
    "nl": 21283,
    "\u0120seconds": 4201,
    "\u0120coaching": 13101,
    "\u0120gratitude": 24083,
    "zan": 15201,
    "\u0120reasoned": 37857,
    "\u0120USB": 8450,
    "Mini": 39234,
    "imov": 44273,
    "\u0120northeastern": 38131,
    "\u0120cryptic": 47774,
    "\u0120quotes": 13386,
    "\u0120sixteen": 27913,
    "\u0120frankly": 17813,
    "\u0120aggro": 44082,
    "\u00e8\u00a1": 26193,
    "\u0120like": 588,
    "\u0120Wiki": 13078,
    "889": 39121,
    "\u0120decreases": 20638,
    "\u0120Locations": 41277,
    "\u0120Landing": 29689,
    "\u0120Sz": 27974,
    "\u0120colleges": 15273,
    "\u0120neglected": 24007,
    "\u0120254": 35360,
    "Tesla": 41351,
    "\u0120Auditor": 38938,
    "\u0120answering": 18877,
    "\u0120poke": 22620,
    "601": 41706,
    "\u0120madness": 23208,
    "\u0120000000": 41853,
    "\u0120looking": 2045,
    "Blade": 47520,
    "011": 28555,
    "\u012093": 10261,
    "4000": 27559,
    "\u0120outside": 2354,
    "\u0120occasional": 12209,
    "\u0120licence": 17098,
    "\u0120Alert": 23276,
    "\u0120polyg": 25052,
    "\u0120sag": 45229,
    "aves": 3080,
    "Last": 5956,
    "\u0120cooperating": 34962,
    "\u0120Flavor": 26438,
    "\u0120mankind": 18019,
    "\u0120Prem": 6929,
    "01": 486,
    "\u0120Evening": 31867,
    "\u0120wakes": 34267,
    "mint": 34289,
    "Jud": 26141,
    "\u0120billionaires": 34740,
    "\u0120fiat": 36984,
    "affiliated": 46818,
    "\u0120iodine": 50047,
    "UG": 7340,
    "95": 3865,
    "Export": 43834,
    "\u0120Hair": 23102,
    "\u0120Crusher": 44711,
    "rehend": 23979,
    "\u0120Processor": 32893,
    "json": 17752,
    "izard": 8669,
    "\u0120DDR": 30085,
    "\u0120Manziel": 45843,
    "\u0120Lazarus": 49093,
    "Render": 45819,
    "\u0120ramp": 10454,
    "\u0120illegal": 5293,
    "\u0120disappoint": 6703,
    "auld": 30406,
    "\u0120Arkansas": 14538,
    "ial": 498,
    "\u0120Probably": 18578,
    "\u0120cerebral": 31169,
    "adder": 26676,
    "\u00c3\u00a9n": 35942,
    "\u0120dub": 10873,
    "\u0120lying": 9105,
    "\u0120peripher": 18375,
    "ourmet": 39094,
    "\u0120Buckley": 41493,
    "\u0120Platinum": 23851,
    "\u0120Karachi": 46154,
    "\u0120meanings": 26368,
    "ocese": 31292,
    "related": 5363,
    "\u0120Sug": 13691,
    "ima": 8083,
    "\u0120CJ": 27731,
    "screen": 9612,
    "\u0120residing": 35173,
    "027": 44698,
    "\u0120irrespective": 40611,
    "\u0120scouting": 27088,
    "\u0120mostly": 4632,
    "\u0120melted": 24178,
    "\u0120slogans": 31139,
    "soc": 35634,
    "\u0120being": 852,
    "chet": 20043,
    "\u0120Reports": 17905,
    "\u0120legislatures": 38081,
    "latest": 42861,
    "\u0120disgusting": 23374,
    "\u0120Arkham": 29486,
    "ishy": 49785,
    "\u0120Roll": 8299,
    "\u0120thrive": 22191,
    "\u0120bleak": 30942,
    "vice": 28281,
    "\u0120should": 815,
    "currently": 41745,
    "\u0120Bridgewater": 48218,
    "\u0120mushroom": 28520,
    "\u0120Axe": 28570,
    "\u0120Plex": 47176,
    "\u0120fiery": 27810,
    "andro": 28092,
    "\u0120Ply": 36526,
    "\u0120Franks": 50099,
    "RAM": 24115,
    "Qaida": 41225,
    "uki": 11308,
    "\u0120Perspect": 29845,
    "\u0120wrong": 2642,
    "\u0120ripping": 34759,
    "\u0120consumes": 37225,
    "\u0120Jal": 28649,
    "\u0120Monument": 33075,
    "\u0120Revenue": 20197,
    "Ford": 37308,
    "\u0120percent": 1411,
    "hetamine": 25385,
    "\u0120payoff": 43843,
    "\u0120chromosomes": 42742,
    "\u0120ballet": 47735,
    "\u0120pric": 38151,
    "\u0120C": 327,
    "bean": 14289,
    "\u0120Founding": 44593,
    "\u0120ageing": 41310,
    "\u0120Southeast": 21199,
    "esta": 18059,
    "\u0120Mosul": 19192,
    "then": 8524,
    "ie": 494,
    "\u0120Friends": 14213,
    "\u0120Jo": 5302,
    "\u0120village": 7404,
    "\u0120enlarg": 26537,
    "\u0120Any": 4377,
    "ocalypse": 15145,
    "\u0120defin": 2730,
    "tube": 29302,
    "\u0120chi": 33166,
    "\u0120Reyes": 40599,
    "Tue": 41392,
    "\u0120Jonah": 45447,
    "\u0120Cum": 27843,
    "\u0120gaping": 46529,
    "\u0120SOFTWARE": 47466,
    "yk": 48361,
    "Goal": 49045,
    "\u0120Sabha": 41941,
    "\u0120classy": 48486,
    "\u0120Wanted": 41536,
    "\u0120architects": 29518,
    "\u0120unsustainable": 39554,
    "itles": 30540,
    "\u0120impunity": 37610,
    "\u0120Zac": 44922,
    "\u0120Vehicle": 21501,
    "\u0120Marin": 36384,
    "\u0120coy": 34003,
    "\u0120son": 3367,
    "\u0120scoop": 23529,
    "44": 2598,
    "\u0120balls": 11333,
    "\u0120indicators": 21337,
    "\u0120localization": 42842,
    "\u0120modeled": 29563,
    "runner": 16737,
    "wrong": 36460,
    "\u0120reconstructed": 49594,
    "Tuesday": 26133,
    "\u0120ducks": 39694,
    "Attribute": 33682,
    "\u0120chops": 44512,
    "\u0120smartphones": 18151,
    "\u0120grievances": 36121,
    "\u0120DeL": 49571,
    "\u0120terrified": 22144,
    "\u0120whale": 22206,
    "New": 3791,
    "\u0120Pry": 32500,
    "\u0120situated": 22765,
    "\u0120Jacksonville": 23194,
    "\u0120folders": 24512,
    "\u0120app": 598,
    "\u0120disgrace": 27690,
    "\u0120tuna": 38883,
    "\u0120Progress": 18387,
    "\u0120\u00e3\u0123": 23294,
    "\u0120perfume": 40094,
    "include": 17256,
    "\u0120Agility": 43406,
    "\u0120english": 46932,
    "z": 89,
    "\u0120Test": 6208,
    "\u0120Imperial": 11773,
    "\u00e2\u0122\u00b2": 17478,
    "\u0120favourites": 39489,
    "\u0120slaves": 13384,
    "\u0120Bentley": 38881,
    "\u0120ib": 24283,
    "rpm": 48235,
    "??": 3548,
    "\u0120limbo": 46008,
    "\u0120Units": 27719,
    "pher": 17042,
    "\u0120rebutt": 46472,
    "\u0120117": 19048,
    "\u0120binaries": 38640,
    "ough": 619,
    "\u00d8\u00a8": 39848,
    "\u0120analges": 48895,
    "\u0120Gund": 23323,
    "ilantro": 48311,
    "\u0120Ter": 3813,
    "\u0120sourcing": 47015,
    "\u0120stations": 8985,
    "\u0120Heal": 24923,
    "\u0120bitters": 48666,
    "\u0120XI": 30554,
    "told": 44040,
    "\u0120underwear": 26170,
    "\u0120breached": 34662,
    "\u0120Warden": 38498,
    "Nap": 49799,
    "\u0120dissip": 32008,
    "seat": 24073,
    "\u0120protester": 34678,
    "\u0120chopped": 20720,
    "ocol": 4668,
    "\u0120programmed": 27402,
    "\u0120SOME": 41670,
    "\u0120Rutherford": 49767,
    "\u0120transformation": 13389,
    "\u012058": 7618,
    "\u0120drones": 15382,
    "\u0120Stand": 5751,
    "mil": 25433,
    "\u0120disproportion": 18717,
    "\u0120Blossom": 35544,
    "'m": 1101,
    "\u0120flurry": 36418,
    "\u0120sixth": 11695,
    "\u0120chase": 15505,
    "\u0120Alexandria": 27872,
    "isse": 20782,
    "\u0120Latvia": 35794,
    "This": 1212,
    "\u0120nearer": 40671,
    "\u0120lapse": 42689,
    "many": 21834,
    "\u0120telecom": 30452,
    "good": 11274,
    "\u0120fro": 8400,
    "\u0120Boehner": 26273,
    "\u0120lifestyles": 43644,
    "\u0120Tutorial": 36361,
    "\u0120inher": 10639,
    "\u0120industries": 11798,
    "\u0120Removal": 46209,
    "\u0120Experience": 16386,
    "\u0120nose": 9686,
    "\u0120Reynolds": 21995,
    "\u0120power": 1176,
    "\u0120universally": 26208,
    "\u0120COUR": 37384,
    "\u0120ride": 6594,
    "\u0120contingency": 38820,
    "\u0120Nope": 39544,
    "\u0120biologists": 43149,
    "\u0120reduce": 4646,
    "\u0120intrigue": 38520,
    "\u0120Plenty": 43257,
    "ls": 7278,
    "\u0120Shock": 22763,
    "\u0120portraying": 42458,
    "along": 24176,
    "\u0120succeeding": 34195,
    ":": 25,
    "onential": 35470,
    "\u0120210": 20064,
    "\u0120definitively": 41385,
    "anooga": 42165,
    "\u0120swim": 9422,
    "\u0120herself": 5223,
    "\u0120Nem": 22547,
    "\u0120aur": 45714,
    "laden": 35668,
    "\u0120Bees": 46698,
    "idelity": 23091,
    "tim": 16514,
    "\u0120disappear": 10921,
    "\u0120harbour": 39720,
    "\u0120Minute": 38573,
    "\u0120remark": 6919,
    "\u0120Birds": 27124,
    "\u0120text": 2420,
    "\u0120Nir": 31487,
    "\u0120unhealthy": 27942,
    "\u0120freaking": 35607,
    "\u0120Corruption": 37626,
    "lucent": 35600,
    "\u0120permanently": 15043,
    "\u0120Ask": 16981,
    "inating": 6010,
    "\u0120fork": 15563,
    "\u0120soccer": 11783,
    "Luck": 35498,
    "\u0120shuts": 44854,
    "Fish": 39428,
    "\u0120Yorker": 27980,
    "\u0120Gravity": 24084,
    "medical": 41693,
    "\u0120furiously": 44896,
    "\u0120mang": 45663,
    "\u0120joining": 9679,
    "\u0120KM": 46646,
    "wallet": 44623,
    "\u0120bureaucrats": 34025,
    "\u0120RED": 23848,
    "\u0120Katy": 36715,
    "erm": 7780,
    "\u0120hij": 16836,
    "\u0120organize": 16481,
    "\u0120How": 1374,
    "\u0120exclude": 19607,
    "\u0120transf": 13501,
    "\u0120forwards": 22052,
    "Ky": 30630,
    "\u0120motorcycles": 39404,
    "989": 42520,
    "edly": 49288,
    "\u0120premier": 18256,
    "\u0120grey": 13791,
    "\u0120abusers": 38991,
    "boxing": 45471,
    "\u0120tall": 7331,
    "Whit": 43617,
    "\u0120Shed": 49340,
    "Wild": 25946,
    "\u0120schools": 4266,
    "antha": 32589,
    "\u0120Wang": 15233,
    "peace": 22988,
    "\u0120dressing": 18544,
    "\u0120understood": 7247,
    "\u0120discontin": 19936,
    "\u0120qualification": 28587,
    "\u0120preferably": 29203,
    "cemic": 40478,
    "ithing": 44556,
    "\u0120estab": 2803,
    "\u0120ingested": 44694,
    "people": 15332,
    "\u0120neutral": 8500,
    "\u0120Contents": 26714,
    "\u0120watchdog": 26856,
    "\u0120unmist": 40016,
    "\u0120MLB": 18532,
    "\u0120Jesuit": 50190,
    "\u0120Father": 9190,
    "\"'": 30543,
    "\u0120find": 1064,
    "\u0120ID": 4522,
    "\u0120perk": 34407,
    "\u0120Eternity": 33410,
    "\u0120authority": 4934,
    "\u0120Okay": 16805,
    "esville": 19641,
    "\u0120circled": 48149,
    "\u0120ministers": 14138,
    "\u0120Outer": 35868,
    "\u0120Karin": 38802,
    "\u0120paints": 32281,
    "\u0120Household": 37306,
    "\u0120Jets": 14728,
    "\u0120Delete": 23520,
    "Ear": 8419,
    "\u0120junction": 35037,
    "\u0120Dyn": 39530,
    "scribed": 47495,
    "cerned": 49990,
    "\u0120homegrown": 49847,
    "\u0120Lego": 33198,
    ".\")": 19570,
    "\u0120CBD": 27147,
    "Conf": 18546,
    "Excellent": 45675,
    "MIC": 49884,
    "oslav": 26388,
    "\u0120regarded": 11987,
    "\u0120staggered": 48480,
    "\u0120materials": 5696,
    "anty": 46098,
    "\u0120bans": 20075,
    "ually": 935,
    "micro": 24055,
    "\u0120bowel": 35711,
    "Vill": 42074,
    "\u0120decreased": 11832,
    "MET": 47123,
    "\u0120Ru": 11667,
    "\u0120States": 1829,
    "acteria": 10634,
    "\u0120Rapt": 21301,
    "\u0120guys": 3730,
    "cia": 33743,
    "\u0120bulky": 39392,
    "icult": 2249,
    "\u0120Princeton": 23173,
    "uscript": 15817,
    "Setting": 34149,
    "\u0120plant": 4618,
    "Nov": 20795,
    "\u0120Need": 10664,
    "\u0120connector": 21716,
    "\u0120cavern": 33932,
    "\u0120thanked": 26280,
    "\u0120Feinstein": 34861,
    "\u0120ob": 909,
    "\u0120talent": 7401,
    "\u0120participate": 8277,
    "VP": 8859,
    "\u0120glam": 27240,
    "\u0120Steele": 28549,
    "\u0120pediatric": 29775,
    "\u0120rub": 6437,
    "\u0120pursu": 8238,
    "\u0120protects": 17289,
    "ordial": 31223,
    "\u0120VP": 23342,
    "\u0120Nigerian": 36430,
    "lude": 38792,
    "\u0120intelligent": 12661,
    "\u0120linem": 22774,
    "erguson": 14168,
    "\u0120Drugs": 26722,
    "\u0120jaws": 39940,
    "\u0120Cinderella": 40933,
    "\u0120guerrilla": 42049,
    "\u0120VII": 19691,
    "\u0120fared": 43688,
    "\u0120Bombs": 44394,
    "\u0120sentencing": 20565,
    "Through": 15046,
    "\u0120Letters": 24501,
    "\u0120nodes": 13760,
    "\u0120antioxid": 28360,
    "((": 19510,
    "\u0120Madison": 14909,
    "\u0120speculation": 13367,
    "\u0120unemployed": 21021,
    "\u0120FA": 9677,
    "\u0120Creator": 21038,
    "\u0120chanting": 31138,
    "\u0120Inquiry": 39138,
    "\u0120abdominal": 32692,
    "\u0120MUS": 39484,
    "bara": 39389,
    "\u0120abolish": 35531,
    "eland": 8822,
    "\u0120masse": 41869,
    "\u0120meticulously": 46553,
    "\u0120calendars": 50215,
    "_-_": 31386,
    "\u0120accuses": 35062,
    "\u0120reserv": 5463,
    "\u0120percentile": 37894,
    "\u0120brewed": 40163,
    "\u0120suspend": 22004,
    "exist": 38476,
    "Frag": 42974,
    "\u0120cushion": 33579,
    "Furthermore": 24951,
    "ATHER": 45226,
    "Arg": 28100,
    "\u0120constraints": 17778,
    "\u0120trance": 43618,
    "iday": 2567,
    "arded": 10676,
    "\u0120Reb": 15652,
    "\u0120Writer": 26606,
    "Hum": 32661,
    "osion": 18442,
    "\u0120COMP": 24301,
    "\u0120Malaysian": 30031,
    "\u01201280": 37674,
    "\u0120selection": 6356,
    "\u0120prow": 25055,
    "\u0120Shank": 41595,
    "\u0120465": 49669,
    "\u0120problem": 1917,
    "\u0120Shanahan": 48906,
    "ceiver": 39729,
    "\u0120Cover": 17546,
    "\u0120descended": 23667,
    "\u0120Arsenal": 13837,
    "\u0120Ezekiel": 48742,
    "\u0120repeat": 9585,
    "\u0120assignments": 25815,
    "\u0120giving": 3501,
    "\u0120the": 262,
    "ex": 1069,
    "metry": 41935,
    "272": 29807,
    "\u0120#": 1303,
    "\u0120Creat": 7921,
    "Cle": 34349,
    "\u0120dysph": 50111,
    "\u0120untrue": 35212,
    "\u0120Keller": 35999,
    "\u0120fold": 5591,
    "\u0120speaker": 10834,
    "LP": 19930,
    "\u0120handling": 9041,
    "\u0120angels": 21981,
    "anian": 38336,
    "\u0120Dropbox": 38930,
    "\u0120sandy": 44039,
    "exe": 13499,
    "former": 16354,
    "\u0120indicated": 8203,
    "driving": 24255,
    "\u0120became": 2627,
    "\u0120errone": 27383,
    "\u0120Jensen": 32623,
    "\u0120Jail": 25715,
    "\u0120prejudices": 39800,
    "\u0120Fiona": 42207,
    "ismo": 44126,
    "\u0120crabs": 49172,
    "formerly": 36234,
    "aimon": 49438,
    "Array": 19182,
    "Mexico": 33006,
    "\u0120Frazier": 44145,
    "\u0120ancestor": 31836,
    "\u0120Deg": 25905,
    "rive": 11590,
    "\u0120performs": 17706,
    "\u0120consortium": 36451,
    "\u0120unions": 11936,
    "\u0120Meredith": 40378,
    "\u0120Shawn": 25225,
    "tarians": 28266,
    "\u0120Not": 1892,
    "epend": 2690,
    "washing": 38524,
    "\u0120Pol": 2165,
    "\u0120captured": 7907,
    "\u0120hated": 16563,
    "\u0120parchment": 38414,
    "\u0120reformed": 42878,
    "\u0120experimenting": 27826,
    "\u0120Sind": 44830,
    "\u0120deep": 2769,
    "ILS": 45484,
    "\u0120BB": 12597,
    "\u0120SW": 12672,
    "\u0120sucks": 22523,
    "\u0120Trouble": 34179,
    "ampa": 13299,
    "\u0120aggregation": 46500,
    "it\u00c3\u00a9": 43816,
    "65": 2996,
    "\u0120Advantage": 45318,
    "\u0120\"...": 27896,
    "\u0120classified": 10090,
    "\u0120Warwick": 49398,
    "\u0120defy": 37462,
    "\u0120agitated": 41574,
    "\u00ec": 168,
    "Shortly": 30513,
    "\u0120futures": 25650,
    "\u0120Gotham": 30129,
    "\u0120investigations": 10986,
    "\u0120fry": 32959,
    "erker": 35779,
    "processor": 41341,
    "Gender": 41394,
    "\u0120L": 406,
    "argo": 9448,
    ":'": 32105,
    "\u0120automated": 16359,
    "\u0120Biol": 38637,
    "\u0120revenues": 13089,
    "\u0120unde": 44192,
    "\u0120matrix": 17593,
    "herence": 23545,
    "\u0120tune": 14009,
    "\u0120behaved": 39207,
    "\u012072": 7724,
    "\u0120Projects": 29898,
    "\u0120mer": 4017,
    "\u0120begin": 2221,
    "Random": 29531,
    "\u0120preliminary": 15223,
    "\u0120Sands": 35359,
    "thumbnails": 18670,
    "\u0120relationships": 6958,
    "\u0120Rod": 6882,
    "\u0120GD": 27044,
    "\u0120interacting": 24986,
    "\u0120waits": 28364,
    "ioch": 41097,
    "\u0120Calais": 48025,
    "\u0120Land": 6379,
    "\u0120Books": 13661,
    "\u0120Bennett": 17468,
    "height": 17015,
    "\u0120Whilst": 40661,
    "\u0120Inquisition": 41162,
    "\u0120FC": 10029,
    "\u0120ROM": 21224,
    "gat": 41268,
    "\u0120458": 50154,
    "\u0120USL": 44072,
    "conservancy": 41215,
    "\u0120vinyl": 23275,
    "\u0120food": 2057,
    "\u0120dare": 16498,
    "\u0120Forest": 9115,
    "\u0120peas": 22589,
    "\u0120Burns": 23592,
    "Plex": 46383,
    "Created": 41972,
    "\u0120Rouhani": 34915,
    "\u0120battling": 20581,
    "ophobia": 19851,
    "\u0120Dy": 23524,
    "ved": 1079,
    "\u0120courtyard": 34941,
    "\u0120admitting": 22688,
    "eteenth": 26425,
    "\u00e2\u0122\u0136\u00e2\u0122\u0136": 4500,
    "Tree": 27660,
    "Bow": 39961,
    "\u0120Duration": 22920,
    "adders": 45940,
    "\u0120MU": 25108,
    "\u0120pairing": 27356,
    "aram": 41158,
    "\u0120determination": 12123,
    "\u0120organizer": 26311,
    "\u0120care": 1337,
    "\u0120OPEN": 38303,
    "\u0120cache": 12940,
    "\u0120Augustine": 36158,
    "\u0120Wooden": 40143,
    "\u0120Dynam": 14970,
    "840": 40675,
    "\u0120grunt": 45836,
    "\u0120Lov": 39911,
    "\u0120turbo": 29292,
    "\u0120warranty": 18215,
    "assi": 46527,
    "\u0120\u00c5": 25370,
    "\u0120assailants": 49690,
    "irement": 24615,
    "rained": 13363,
    "Latin": 49022,
    "\u0120yours": 12431,
    "MON": 27857,
    "specified": 23599,
    "crit": 22213,
    "\u0120tweaking": 39272,
    "\u0120Amy": 14235,
    "\u0120comple": 1224,
    "oston": 5744,
    "\u0120pedest": 14238,
    "\u0120Reason": 23219,
    "\u0120Isle": 26378,
    "\u0120base": 2779,
    "\u0120Ascension": 41416,
    "\u0120dystop": 39227,
    "\u0120skirts": 42370,
    "================================================================": 23926,
    "\u0120reporter": 9095,
    "\u0120Grim": 17525,
    "\u0120FO": 11895,
    "union": 24592,
    "\u0120bandits": 44149,
    "enemy": 46970,
    "ventions": 16593,
    "\u0120shrink": 22085,
    "Tes": 36504,
    "\"\"\"": 37811,
    "\u0120Length": 22313,
    "\u0120abundant": 23263,
    "these": 27218,
    "\u0120Phillies": 36552,
    "\u0120perce": 36974,
    "\u0120protection": 4800,
    "\u0120flats": 38157,
    "\u0120During": 5856,
    "\u0120sly": 49822,
    "ividually": 16335,
    "\u0120Celsius": 34186,
    "seller": 32932,
    "Open": 11505,
    "\u0120getting": 1972,
    "\u0120*/": 9466,
    "\u0120Stronghold": 40092,
    "\u0120resolve": 10568,
    "\u0120Fire": 3764,
    "\u0120older": 4697,
    "\u0120iPhone": 7133,
    "\u0120Catalan": 31066,
    "\u0120comprehensive": 9815,
    "\u0120Novel": 24467,
    "\u0120Clause": 28081,
    "\u0120ATP": 39046,
    "Turn": 17278,
    "\u0120ferv": 28866,
    "\u0120scholarship": 18652,
    "\u0120extensions": 18366,
    "ef": 891,
    "\u0120Pony": 30377,
    "aurus": 22302,
    "\u0120hundred": 3470,
    "\u0120Thus": 6660,
    "\u0120reaching": 8978,
    "\u0120vibrant": 21266,
    "ickets": 15970,
    "\u0120volts": 46297,
    "\u0120Tir": 39847,
    "\u0120Jenny": 28437,
    "\u0120Tokens": 47365,
    "\u0120lined": 16566,
    "\u0120Bahrain": 29066,
    "\u0120Definitely": 33562,
    "Your": 7120,
    "\u0120Earl": 21647,
    "\u0120VIDE": 45748,
    "\u0120feminism": 19394,
    "\u0120introdu": 3120,
    "irlf": 9841,
    "anic": 26277,
    "\u0120muff": 27563,
    "\u0120It": 632,
    "gz": 34586,
    "\u0120ineligible": 39538,
    "\u0120civilisation": 45605,
    "\u0120advancements": 47220,
    "\u0120Hil": 24410,
    "([": 26933,
    "\u0120referred": 6412,
    "\u0120fine": 3734,
    "\u0120fraud": 7394,
    "\u0120recruited": 18774,
    "orm": 579,
    "\u0120toughest": 28212,
    "\u0120riding": 10311,
    "\u0120Strat": 29186,
    "Sol": 36949,
    "\u0120restrain": 39300,
    "\u0120Dempsey": 41994,
    "\u0120Palo": 44878,
    "\u0120nucle": 17751,
    "\u0120compulsion": 48672,
    "\u0120sal": 3664,
    "prone": 46330,
    "power": 6477,
    "\u0120Murd": 20305,
    "\u0120Present": 21662,
    "\u0120volleyball": 50196,
    "\u0120lymph": 28837,
    "zig": 38262,
    "\u0120Unle": 36471,
    "olar": 6192,
    "\u0120forever": 8097,
    "\u0120renting": 34245,
    "\u0120Prophe": 33360,
    "elve": 9954,
    "\u0120corrupted": 26940,
    "arent": 1580,
    "Angel": 33246,
    "\u0120Northeast": 26315,
    "\u0120reclaim": 28232,
    "\u0120concise": 35327,
    "\u0120elicit": 44055,
    "CON": 10943,
    "contained": 45964,
    "errors": 48277,
    "\u0120methane": 25006,
    "ento": 50217,
    "\u0120fooled": 35820,
    "886": 44980,
    "\u012028": 2579,
    "ieves": 17974,
    ".\"[": 18161,
    "\u0120gradient": 31312,
    "PL": 6489,
    "\u00cf\u0123": 33643,
    "\u0120manages": 15314,
    "\u0120PDF": 12960,
    "\u0120Fen": 19426,
    "\u0120Glas": 21931,
    "\u0120Mayer": 33996,
    "\u0120Hat": 10983,
    "\u0120sooner": 14556,
    "\u0120progressive": 10393,
    "\u0120Southampton": 30035,
    "\u0120scrolls": 32138,
    "\u0120slander": 47397,
    "\u0120dozen": 8667,
    "\u0120Maine": 15080,
    "MAX": 22921,
    "\u0120Protestant": 25310,
    "Call": 14134,
    "\u0120indu": 9318,
    "\u0120meg": 17243,
    "\u0120institute": 24224,
    "ides": 1460,
    "aturated": 30192,
    "\u0120externalToEVAOnly": 30213,
    "esthes": 29678,
    "\u0120attest": 44477,
    "\u0120Paran": 42561,
    "\u0120Lutheran": 43772,
    "\u0120enjoyed": 8359,
    "\u0120Read": 4149,
    "\u0120slip": 13819,
    "\u0120pursuing": 15461,
    "anyl": 34816,
    "\u0120Asuka": 46649,
    "\u0120Counsel": 21023,
    "\u0120Ming": 26980,
    "\u0120cons": 762,
    "uly": 2062,
    "\u00c2\u0143": 3907,
    "\u0120empowering": 35917,
    "\u0120\u00f0\u0141\u013a": 30325,
    "agus": 31111,
    "\u0120heed": 32420,
    "\u0120Chosen": 39884,
    "\u0120Bombay": 48918,
    "\u0120messages": 6218,
    "\u0120submer": 32640,
    "\u01201981": 14745,
    "\u0120acc": 697,
    "\u0120Matrix": 24936,
    "\u0120Scarborough": 36126,
    "\u0120allied": 22034,
    "\u0120pensions": 27581,
    "Header": 39681,
    "\u0120Languages": 42860,
    "314": 33638,
    "ated": 515,
    "\u0120Vancouver": 10930,
    "\u0120ozone": 37170,
    "\u0120Aren": 9843,
    "\u0120cubic": 27216,
    "uction": 8110,
    "\u0120Edmund": 35646,
    "\u0120mel": 7758,
    "acea": 44977,
    "bp": 46583,
    "caliber": 43288,
    "\u0120coerced": 48474,
    "\u0120richness": 46792,
    "\u0120deserts": 45288,
    "emer": 24677,
    "\u0120Psychology": 18430,
    "\u0120logs": 17259,
    "\u0120Beautiful": 23762,
    "\u0120Reese": 39929,
    "\u0120graded": 44545,
    "371": 38056,
    "\u0120examined": 11068,
    "amous": 10877,
    "\u0120subsidiary": 22347,
    "Bal": 24597,
    "\u0120Adam": 7244,
    "\u0120descend": 15350,
    "\u0120steril": 30429,
    "\u0120speculated": 29131,
    "\u0120342": 44341,
    "java": 12355,
    "\u0120lucid": 45464,
    "ital": 1287,
    "\u0120statewide": 23605,
    "\u0120Supreme": 5617,
    "fle": 27919,
    "\u0120multiplied": 33096,
    "reditary": 47333,
    "activation": 48545,
    "\u0120Klaus": 49739,
    "\u0120were": 547,
    "Nintendo": 32348,
    "\u0120Parkinson": 31618,
    "oneliness": 34634,
    "\u0120roomm": 26255,
    "\u0120Blitz": 29299,
    "\u0120Heroic": 34364,
    "ection": 3213,
    "\u0120try": 1949,
    "\u012092": 10190,
    "76": 4304,
    "\u0120Buddha": 19154,
    "okia": 22903,
    "GW": 33191,
    "\u0120comm": 725,
    "\u0120Eld": 19208,
    "\u0120puzzle": 15027,
    "\u0120overcome": 10980,
    "\u0120installer": 29124,
    "\u0120BAR": 31597,
    "\u0120Barney": 41921,
    "\u0120instantaneous": 47707,
    "\u0120spending": 4581,
    "\u0120lottery": 22098,
    "Maker": 48890,
    "\u0120Bath": 24967,
    "\u0120domains": 18209,
    "\u0120percentage": 5873,
    "\u0120Walters": 43287,
    "uto": 9390,
    "leans": 11861,
    "\u0120dont": 17666,
    "\u0120proble": 1369,
    "\u0120occupations": 23308,
    "clinical": 47367,
    "\u0120Hart": 11345,
    "\u0120Brid": 28320,
    "\u0120lines": 3951,
    "\u0120suits": 14803,
    "\u0120WI": 29360,
    "\u0120shipping": 8440,
    "ardi": 22490,
    "\u0120punch": 10862,
    "\u0120soaked": 33657,
    "\u0120Icelandic": 41959,
    "\u0120erad": 23011,
    "\u0120Want": 16168,
    "'re": 821,
    "reportprint": 30897,
    "GAN": 45028,
    "\u0120vying": 48067,
    "\u0120Nemesis": 49885,
    "\u0120second": 1218,
    "\u0120scarcely": 32335,
    "\u0120algebra": 37139,
    "icides": 16751,
    "\u0120Ying": 38833,
    "\u0120fleets": 39439,
    "\u0120Pil": 12693,
    "\u0120chancellor": 30006,
    "\u0120hemorrh": 42203,
    "associated": 32852,
    "\u0120Campaign": 13718,
    "\u0120supplying": 28099,
    "effects": 34435,
    "\u0120Scala": 38334,
    "\u0120Sequence": 45835,
    "Ns": 47503,
    "Gl": 9861,
    "\u0120Increase": 25285,
    "\u0120prophets": 30687,
    "travel": 35927,
    "\u0120Bundes": 33816,
    "\u0120apartheid": 38264,
    "\u0120Gael": 39652,
    "\u0120obe": 45653,
    "hitting": 48320,
    "\u0120high": 1029,
    "\u0120Peyton": 35228,
    "\u0120Bone": 21717,
    "\u0120undesirable": 38117,
    "\u0120Petition": 43723,
    "\u0120Amazon": 6186,
    "cert": 22583,
    "\u0120spe": 693,
    "ential": 1843,
    "\u0120managerial": 43747,
    "\u0120reference": 4941,
    "cooked": 46591,
    "\u0120guest": 8319,
    "arantine": 37996,
    "\u0120microphones": 46952,
    "\u0120investments": 11115,
    "\u0120hasht": 20267,
    "\u0120logger": 49706,
    "schild": 35058,
    "132": 19924,
    "chemist": 28899,
    "olic": 4160,
    "ution": 1009,
    "\u0120blo": 24924,
    "\u0120CASE": 42001,
    "Gay": 41787,
    "\u0120triv": 19876,
    "figured": 46296,
    "those": 25591,
    "\u0120kindness": 23887,
    "\u0120subtitle": 37960,
    "\u0120entitled": 9080,
    "\u00f9": 181,
    "izontal": 38342,
    "\u0120frog": 21264,
    "\u0120persons": 6506,
    "\u0120fetus": 31076,
    "Mid": 22622,
    "\u0120incentives": 16538,
    "\u0120turn": 1210,
    "\u0120balloons": 35485,
    "2500": 44688,
    "ost": 455,
    "\u0120breaks": 9457,
    "age": 496,
    "\u0120hind": 16222,
    "\u0120plate": 7480,
    "\u0120Media": 6343,
    "\u0120pale": 14005,
    "\u0120\u00d9\u012a": 42092,
    "\u0120Schn": 45606,
    "ARM": 33456,
    "\u00e2\u0136\u0122\u00e2\u0136\u0122\u00e2\u0136\u0122\u00e2\u0136\u0122\u00e2\u0136\u0122\u00e2\u0136\u0122\u00e2\u0136\u0122\u00e2\u0136\u0122": 28542,
    "\u0120lear": 22454,
    "\u0120characters": 3435,
    "\u0120dossier": 34602,
    "uncture": 39187,
    "ijk": 45961,
    "ivism": 25085,
    "\u0120tub": 12202,
    "\u0120Tehran": 20882,
    "\u0120limb": 25035,
    "\u0120Difference": 43795,
    "\u0120sab": 17463,
    "\u0120unab": 40986,
    "\u0120Tours": 42998,
    "\u01201980": 7169,
    "\u0120proposed": 5150,
    "\u0120overcl": 40397,
    "\u0120dexter": 44405,
    "\u0120unwanted": 19125,
    "tenance": 8219,
    "atinum": 16881,
    "\u0120chocolate": 11311,
    "\u0120Victorian": 24569,
    "\u0120dominates": 38777,
    "\u0120stark": 19278,
    "Yu": 40728,
    "\u0120longitudinal": 36211,
    "lib": 8019,
    "\u0120s": 264,
    "ampire": 13577,
    "ogenesis": 25908,
    "\u0120dollar": 8872,
    "contract": 28484,
    "itable": 4674,
    "\u0120recovered": 11911,
    "\u0120Instructions": 27759,
    "gae": 25002,
    "\u0120sail": 14936,
    "\u0120villagers": 25263,
    "note": 11295,
    "\u0120Afghanistan": 8037,
    "pole": 36869,
    "\u0120Intercept": 37127,
    "ailed": 6255,
    "lv": 6780,
    "\u0120mortgage": 13682,
    "\u0120trophy": 16383,
    "\u0120Cultural": 23897,
    "HCR": 43230,
    "\u0120appropri": 4148,
    "\u0120challenge": 4427,
    "ached": 2317,
    "\u0120Asset": 31433,
    "\u0120Thomson": 32425,
    "\u0120Gustav": 43715,
    "\u0120diabetic": 44016,
    "zens": 8247,
    "\u0120Jer": 4230,
    "\u0120Heaven": 11225,
    "\u0120bicycle": 17026,
    "\u0120assignment": 16237,
    "\u0120blessings": 28388,
    "\u0120unfit": 39053,
    "iscovered": 41168,
    "\u0120decoration": 42050,
    "Govern": 29168,
    "\u0120constituents": 22573,
    "\u0120allowed": 3142,
    "\u0120DEM": 40101,
    "Ever": 23921,
    "\u0120spoil": 20851,
    "\u0120populations": 9684,
    "\u0120dungeon": 18974,
    "\u0120spin": 7906,
    "fitting": 32232,
    "\u0120Spart": 20711,
    "\u0120retire": 8058,
    "\u0120ok": 12876,
    "\u0120willfully": 46857,
    "lations": 49905,
    "\u012012": 1105,
    "okemon": 12717,
    "\u0120earning": 13748,
    "\u0120Rodrig": 16114,
    "\u0120Ashley": 20899,
    "\u0120embro": 27623,
    "igger": 15249,
    "\u0120enthusiasts": 23099,
    "\u0120cram": 33070,
    "\u0120colorful": 20239,
    "\u0120promise": 6991,
    "articles": 26845,
    "\u0120bipartisan": 20953,
    "person": 6259,
    "Pope": 46172,
    "\u0120juggling": 48097,
    "ULT": 16724,
    "\u0120Horowitz": 47591,
    "\u0120precarious": 38761,
    "Favorite": 49434,
    "arts": 5889,
    "CRE": 43387,
    "\u0120verdict": 15593,
    "oaded": 22273,
    "iners": 21257,
    "\u0120survived": 11803,
    "cher": 2044,
    "\u0120Second": 5498,
    "\u00e3\u0123\u012d": 27370,
    "\u0120alle": 28654,
    "helle": 34454,
    "finger": 35461,
    "\u0120Settlement": 45404,
    "\u0120baff": 25989,
    "\u0120sac": 5360,
    "forced": 12072,
    "\u0120buying": 7067,
    "romy": 50228,
    "?,": 21747,
    "\u0120Apple": 4196,
    "\u0120Stella": 45856,
    "AU": 26830,
    "\u0120alas": 47156,
    "pared": 29190,
    "\u00c3\u00b4": 27083,
    "enne": 29727,
    "\u0120mentors": 44691,
    "\u0120boys": 6510,
    "0001": 18005,
    "\u0120stationed": 25967,
    "Actor": 40277,
    "bah": 47041,
    "203": 22416,
    "').": 27691,
    "75": 2425,
    "\u0120Mama": 40084,
    "\u0120\u00c3\u013e": 49363,
    "\u0120Understanding": 28491,
    "Hand": 12885,
    "\u0120mus": 1928,
    "\u0120Tak": 15804,
    "assion": 11857,
    "inois": 8981,
    "\u0120Instant": 24470,
    "\u0120fish": 5916,
    "\u0120Score": 15178,
    "olon": 43645,
    "\u0120Cha": 20703,
    "\u0120textbook": 28979,
    "\u0120Similarly": 15298,
    "rams": 9474,
    "agu": 11433,
    "\u0120Recipe": 26694,
    "IF": 5064,
    "\u0120having": 1719,
    "Jon": 18219,
    "\u0120assures": 45837,
    "\u0120Dian": 19326,
    "SET": 28480,
    "\u0120rye": 47553,
    "FER": 24302,
    "Loc": 33711,
    "\u0120ori": 22812,
    "\u0120demonic": 33739,
    "ENA": 45510,
    "\u0120dispar": 14455,
    "\u0120Scorp": 28097,
    "\u0120amnesty": 33652,
    "\u0120flagship": 21336,
    "\u0120cruiser": 35239,
    "govtrack": 41230,
    "\u0120ENTER": 46962,
    "\u0120glass": 5405,
    "\u0120beautiful": 4950,
    "\u0120Manga": 27024,
    "\u0120Lynch": 16093,
    "ijah": 32778,
    "\u0120Unicode": 34371,
    "\u0120recounts": 39851,
    "\u0120bear": 6842,
    "\u0120plentiful": 39976,
    "arp": 5117,
    "\u0120365": 21268,
    "Magic": 22975,
    "\u0120Denise": 43596,
    "\u0120turbulence": 47741,
    "\u0120sampling": 19232,
    "\u0120Islands": 12010,
    "\u0120collaborator": 50160,
    "\u0120fertility": 21573,
    "\u0120toxin": 43026,
    "\u0120uninterrupted": 49471,
    "\u0120striped": 49807,
    "stall": 32989,
    "\u0120Winter": 10633,
    "\u0120basically": 6209,
    "\u0120Satellite": 33530,
    "\u0120Festival": 11117,
    "\u0120Transactions": 46192,
    "\u0120feasibility": 40460,
    "\u0120sl": 1017,
    "Luckily": 42332,
    "\u0120enthusiasm": 17131,
    "\u0120strateg": 5352,
    "p": 79,
    "\u0120humanity": 9265,
    "\u0120concession": 33130,
    "\u0120Kelley": 34560,
    "\u0120Radius": 48838,
    "rio": 27250,
    "\u0120eSports": 32717,
    "ales": 2040,
    "ologist": 7451,
    "\u0120Skin": 17847,
    "\u0120Impossible": 38791,
    "pard": 26037,
    "reath": 19367,
    "\u0120hats": 23910,
    "\u0120Goat": 40423,
    "verages": 23118,
    "\u0120predict": 4331,
    "\u0120agitation": 42209,
    "Okay": 16454,
    "\u0120LET": 37994,
    "\u0120Cabin": 16804,
    "\u0120Planes": 42788,
    "\u0120Costume": 40051,
    "\u0120armed": 6936,
    "\u0120Accuracy": 33222,
    "\u0120extras": 33849,
    "provided": 41279,
    "Honestly": 40817,
    "ivari": 35460,
    "\u0120ey": 1926,
    "\u0120tox": 8293,
    "\u0120tasty": 25103,
    "antine": 29003,
    "\u0120blow": 6611,
    "\u0120Swap": 48408,
    "oulder": 17601,
    "\u0120Koreans": 25999,
    "\u0120engineer": 11949,
    "\u0120debated": 24594,
    "385": 27203,
    "\u0120learns": 22974,
    "jas": 28121,
    "\u0120Spin": 28002,
    "Everybody": 28172,
    "\u0120wealthy": 11574,
    "\u0120pigs": 22333,
    "\u0120Opposition": 29560,
    "Impl": 29710,
    "\u0120Tie": 36286,
    "\u0120crow": 37593,
    "nikov": 45451,
    "angelo": 46525,
    "\u0120Summit": 20014,
    "\u0120ki": 47748,
    "Sen": 10445,
    "\u0120sinners": 49279,
    "\u0120defer": 29135,
    "\u0120strangely": 29381,
    "\u0120sc": 629,
    "\u0120makers": 14429,
    "\u0120mud": 17492,
    "\u0120Ashe": 36318,
    "\u0120flattened": 45096,
    "\u0120Anton": 9261,
    "\u0120\"{": 45144,
    "\u00e3\u0124\u00bd": 47559,
    "\u0120blinding": 46573,
    "\u0120sn": 3013,
    "\u0120safest": 33630,
    "\u0120nig": 44873,
    "\u0120percussion": 48388,
    "\u0120err": 11454,
    "yrics": 14279,
    "\u0120fuss": 34297,
    "\u0120KT": 42293,
    "llers": 13802,
    "Reviewer": 35407,
    "eph": 27446,
    "company": 39722,
    "\u0120Hol": 6479,
    "\u0120eighteen": 29095,
    "necess": 10789,
    "keye": 34929,
    "\u0120Around": 16824,
    "\u0120lips": 11914,
    "\u0120Marketplace": 36703,
    "\u0120GG": 37442,
    "\u0120crumbling": 37550,
    "REC": 38827,
    "\u0120Instrument": 42410,
    "nets": 45938,
    "School": 26130,
    "\u0120Icar": 48562,
    "\u0120finite": 27454,
    "\u0120zones": 14123,
    "=-=-=-=-": 27584,
    "\u0120Windows": 3964,
    "\u0120located": 5140,
    "uddled": 32745,
    "ieg": 15702,
    "\u0120Ubisoft": 34559,
    "\u0120Constant": 20217,
    "\u0120Chrom": 18255,
    "\u0120Bl": 1086,
    "top": 4852,
    "\u0120mount": 3817,
    "Ron": 23672,
    "\u0120Katrina": 33251,
    "\u0120Stores": 41835,
    "\u0120Lia": 49520,
    "\u0120annihilation": 49972,
    "control": 13716,
    "\u0120propose": 18077,
    "idden": 4651,
    "\u0120Oilers": 35004,
    "\u0120sacrifices": 24601,
    "ran": 2596,
    "\u0120rehears": 28779,
    "\u0120Medicaid": 13594,
    "self": 944,
    "\u0120predec": 14060,
    "\u0120reopened": 37415,
    "\u0120constituencies": 43742,
    "irms": 8789,
    "\u0120refusal": 17387,
    "pg": 6024,
    "\u0120surreal": 28201,
    "\u0120Antioch": 46590,
    "\u0120Aux": 47105,
    "advert": 17904,
    "\u0120Hardcore": 49691,
    "\u0120textures": 20028,
    "\u00e8\u00bb": 43102,
    "\u0120Dude": 40628,
    "\u0120manoeuv": 42618,
    "\u0120XVI": 49090,
    "\u0120EG": 41513,
    "\u0120@@": 25248,
    "\u0120manifestation": 30566,
    "\u0120Races": 45134,
    "\u0120inclination": 36793,
    "urg": 3686,
    "result": 20274,
    "\u0120pans": 36209,
    "\u0120liqu": 14756,
    "\u00bf\u00bd": 4204,
    "Ha": 23303,
    "\u0120Bach": 25332,
    "\u0120737": 37517,
    "\u0120Franc": 4682,
    "\u0120Electro": 38781,
    "advertisement": 45876,
    "\u0120Person": 7755,
    "\u0120RPC": 39400,
    "\u0120corrupt": 10622,
    "\u00e5\u00b9": 33176,
    "\u0120circuitry": 42344,
    "\u0120remarks": 10252,
    "\u0120PEOPLE": 36388,
    "\u0120MacArthur": 46626,
    "kov": 21862,
    "\u0120Darling": 49825,
    "\u0120Mafia": 32676,
    "\u0120circulate": 49306,
    "\u0120podcasts": 31969,
    "\u0120Tig": 14189,
    "\u0120publicity": 19403,
    "\u0120Preview": 22217,
    "amd": 28745,
    "\u0120Fitz": 16703,
    "\u0120spike": 20240,
    "\u0120Pen": 7507,
    "\u0120Dub": 10322,
    "\u0120comply": 11997,
    "\u0120shred": 21163,
    "\u0120ignition": 37594,
    "\u0120Hayden": 35805,
    "\u0120maintained": 9456,
    "\u0120eligible": 8867,
    "\u0120sentences": 13439,
    "\u0120obey": 22389,
    "\u0120verge": 27373,
    "\u0120owns": 12216,
    "\u0120awe": 25030,
    "\u0120tutorial": 11808,
    "\u0120zoo": 26626,
    "bright": 29199,
    "\u0120diversity": 9573,
    "oggles": 48549,
    "\u0120ceases": 42217,
    "inkle": 19894,
    "\u0120backlash": 19135,
    "\u0120PK": 29673,
    "ively": 2280,
    "\u0120desperation": 31265,
    "leneck": 43163,
    "\u0120pept": 34337,
    "\u0120wonderful": 7932,
    "tern": 759,
    "\u0120Mon": 2892,
    "WORK": 33249,
    "inctions": 31253,
    "\u0120reconnaissance": 39471,
    "************": 46068,
    "ecycle": 47510,
    "\u0120sympt": 6585,
    "\u0120Cotton": 23915,
    "olkien": 31052,
    "oppy": 26696,
    "ormonal": 33792,
    "\u00dd": 153,
    "\u0120suddenly": 6451,
    "\u0120Butter": 18971,
    "Iron": 22797,
    "\u0120cement": 20534,
    "\u0120fingerprint": 25338,
    "\u0120contradicts": 40081,
    "isance": 31872,
    "\u0120brim": 49943,
    "\u0120empower": 17549,
    "\u0120Pal": 3175,
    "\u0120assemblies": 37398,
    "endra": 48286,
    "pelled": 15803,
    "\u0120mom": 1995,
    "book": 2070,
    "imposed": 36457,
    "\u0120historically": 15074,
    "Western": 24227,
    "oi": 23013,
    "href": 33257,
    "\u0120Hert": 40030,
    "\u0120tedious": 32460,
    "\u0120frantically": 42352,
    "Secretary": 38541,
    "vu": 40939,
    "\u0120Kardashian": 48099,
    "\u0120134": 22352,
    "\u0120Norn": 34121,
    "\u0120overly": 17698,
    "~~~~": 8728,
    "\u0120widespread": 10095,
    "ominium": 46134,
    "\u0120HTTP": 14626,
    "tions": 45240,
    "news": 10827,
    "\u0120primates": 41316,
    "cor": 10215,
    "\u0120deity": 26462,
    "value": 8367,
    "\u0120Studios": 13799,
    "iberal": 16813,
    "ston": 3743,
    "ivid": 1699,
    "\u0120delayed": 11038,
    "\u0120Trail": 13069,
    "\u0120Masonic": 47237,
    "\u0120ingrained": 47938,
    "\u0120roots": 11135,
    "\u0120CLSID": 43394,
    "repair": 49932,
    "iw": 14246,
    "resso": 33852,
    "Mon": 9069,
    "930": 45418,
    "\u0120t": 256,
    "\u0120Wars": 6176,
    "\u0120Morning": 14410,
    "\u0120suspension": 11461,
    "pub": 12984,
    "\u0120stick": 4859,
    "Cover": 27245,
    "isner": 49861,
    "\u0120forc": 24686,
    "amps": 9430,
    "\u0120Layer": 34398,
    "\u0120distributor": 32137,
    "bite": 37018,
    "\u0120EntityItem": 49731,
    "\u0120ec": 9940,
    "\u0120respondent": 31282,
    "\u0120tragically": 49866,
    "\u0120Tasman": 29958,
    "itzerland": 13947,
    "\u0120Bolt": 21764,
    "anne": 21952,
    "\u0120labels": 14722,
    "332": 32148,
    "\u0120planner": 42351,
    "\u0120gas": 3623,
    "sync": 27261,
    "\u0120Spells": 30656,
    "\u0120groin": 42247,
    "\u0120mint": 21043,
    "bsp": 24145,
    "ertation": 42245,
    "\u0120Annotations": 47939,
    "\u0120rocked": 36872,
    "\u0120bruising": 45468,
    "\u0120NV": 23973,
    "\u0120heroin": 16914,
    "Hero": 30411,
    "ogeneous": 32269,
    "\u0120aspirations": 27337,
    "ics": 873,
    "QUI": 43702,
    "million": 14100,
    "\u0120Correctional": 48371,
    "\u0120Leonardo": 38083,
    "Bet": 13056,
    "\u0120everyday": 10908,
    "\u0120stal": 29049,
    "\u0120franc": 46754,
    "\u0120critique": 19976,
    "Org": 46808,
    "\u0120nurturing": 47416,
    "\u0120Fancy": 49848,
    "eden": 31829,
    "\u0120Rays": 36199,
    "\u0120facto": 26126,
    "natureconservancy": 41380,
    "esides": 11788,
    "\u0120justified": 14460,
    "\u0120Werner": 48642,
    "\u0120Criminal": 15531,
    "\u0120bugs": 11316,
    "****": 2466,
    "\u0120questionable": 18269,
    "\u0120inherently": 20108,
    "\u0120Hoo": 26859,
    "\u0120apprehended": 41979,
    "\u0120Guer": 30059,
    "agent": 25781,
    "\u0120circumstances": 5917,
    "\u0120venerable": 45682,
    "\u0120Hack": 18281,
    "\u0120Convert": 38240,
    "\u0120Primordial": 44174,
    "\u0120\u00e8\u00a3\u0131": 6438,
    "ashes": 7465,
    "\u0120Warm": 25692,
    "THING": 39356,
    "\u0120amateur": 18585,
    "\u0120MySQL": 33476,
    "\u0120exerted": 48322,
    "summary": 49736,
    "\u0120amendments": 17835,
    "girl": 15219,
    "\u0120hous": 3821,
    "\u0120Plague": 35236,
    "\u013f": 251,
    "i": 72,
    "icks": 3378,
    "stream": 5532,
    "\u0120roy": 10611,
    "\u0120Protest": 17801,
    "yrus": 21180,
    "adden": 38014,
    "\u0120equations": 27490,
    "\u0120gimm": 33135,
    "\u0120Jehovah": 33205,
    "\u0120darker": 18646,
    "\u0120invaders": 39417,
    "\u0120baffled": 44432,
    "jc": 48055,
    "ML": 5805,
    "strous": 22501,
    "\u0120spying": 23649,
    "\u0120feeds": 21318,
    "\u0120Bethesda": 33537,
    ".:": 11207,
    "\u0120Song": 10940,
    "\u0120Death": 5830,
    "999": 17032,
    "\u0120Torrent": 43399,
    "\u0120maintaining": 10941,
    "\u0120Barth": 44414,
    "\u0120BLM": 45188,
    "\u0120belief": 4901,
    "bad": 14774,
    "\u0120arrangements": 14752,
    "\u0120Marks": 27366,
    "\u0120ruining": 39842,
    "Reilly": 25819,
    "\u0120Conference": 8785,
    "Jo": 9908,
    "\u0120stash": 38305,
    "\u0120peac": 41961,
    "\u0120regret": 13721,
    "\u0120param": 5772,
    "icidal": 21488,
    "\u0120Verse": 38641,
    "\u0120countries": 2678,
    "aldehyde": 44895,
    "50": 1120,
    "\u00e5": 161,
    "\u0120condition": 4006,
    "padding": 39231,
    "Strength": 45027,
    "withstanding": 20701,
    "\u0120Richie": 49209,
    "\u0120parish": 28830,
    "\u0120guardian": 21688,
    "\u0120appro": 1331,
    "\u0120Turk": 8484,
    "\u0120bigger": 5749,
    "\u00d7\u013b": 25529,
    "TON": 11357,
    "\u0120A": 317,
    "illy": 6548,
    "NET": 12884,
    "\u0120int": 493,
    "\u0120\u00e2\u012b\u00a5": 26870,
    "\u0120rooft": 27291,
    "\u0120frameworks": 29251,
    "\u0120Mats": 30107,
    "afe": 8635,
    "\u0120Nvidia": 27699,
    "\u0120267": 37364,
    "\u0120sparked": 16752,
    "\u0120qualifier": 39265,
    "eeds": 39642,
    "\u0120trailed": 40060,
    "ifix": 42169,
    "\u0120Disabled": 43201,
    "puting": 48074,
    "\u00d8\u00a9": 45632,
    "\u0120shameless": 41564,
    "\u0120pleasure": 9476,
    "\u0120flexible": 12846,
    "\u0120suggestions": 11776,
    "\u0120milestone": 23554,
    "\u0120subjected": 16164,
    "\u0120wart": 32943,
    "\u0120Stock": 10500,
    "\u0120Frog": 28328,
    "\u0120Strip": 18508,
    "iannopoulos": 36408,
    "ptroller": 44913,
    "igma": 13495,
    "\u0120Lucy": 22162,
    "\u0120fraught": 39730,
    "\u0120sisters": 15153,
    "\u0120ignorant": 20109,
    "%": 4,
    "alion": 19275,
    "465": 42018,
    "irsch": 47108,
    "\u0120fragrance": 36860,
    "Vi": 38432,
    "\u0120acquired": 9477,
    "Social": 20636,
    "ventional": 20405,
    "stay": 31712,
    "\u0120polling": 13985,
    "\u0120Azure": 22134,
    "\u0120Lake": 6233,
    "\u0120bees": 17002,
    "\u0120Already": 27511,
    "\u0120Years": 13212,
    "apes": 7916,
    "\u0120discarded": 25148,
    "\u0120Accordingly": 28386,
    "Sep": 19117,
    "vals": 12786,
    "ffee": 5853,
    "\u0120medicines": 23533,
    "warning": 43917,
    "nine": 30888,
    "Population": 45251,
    "lol": 47288,
    "kes": 5209,
    "\u0120priorities": 15369,
    "\u0120Amendments": 39169,
    "rounded": 39262,
    "\u0120discussing": 11142,
    "av": 615,
    "\u0120Grade": 22653,
    "\u0120binds": 37354,
    "\u0120beam": 15584,
    "\u0120291": 43336,
    "\u0120Gum": 34587,
    "075": 46396,
    "\u0120Prevention": 18313,
    "Region": 47371,
    "\u00f5": 177,
    "530": 38612,
    "\u0120Equip": 47636,
    "ushi": 17731,
    "\u0120deputies": 21861,
    "283": 30290,
    "\u0120sewing": 35356,
    "\u0120Delivery": 28682,
    "\u0120Bian": 41227,
    "\u0120Got": 11853,
    "cong": 36801,
    "CONCLUS": 47542,
    "\u0120synchronized": 47192,
    "abba": 48910,
    "\u0120aver": 9076,
    "\u0120Morg": 37417,
    "\u0120Younger": 45174,
    "flag": 32109,
    "\u0120Hebrew": 16505,
    "\u0120disparate": 37433,
    "________________________________________________________________": 27193,
    "\u0120Status": 12678,
    "Howard": 32434,
    "\u0120enh": 5881,
    "ta": 8326,
    "ISIS": 29322,
    "UT": 3843,
    "decl": 32446,
    "\u0120clipping": 45013,
    "Loader": 17401,
    "\u0120Wireless": 24365,
    "\u0120Lub": 40753,
    "inant": 42483,
    "______": 25947,
    "\u0120Uttar": 44744,
    "\u0120Palace": 15301,
    "\u0120anthropology": 45424,
    "\u0120dizz": 29527,
    "\u0120Cooper": 10382,
    "\u0120characteristic": 16704,
    "\u0120interface": 7071,
    "ederation": 9748,
    "\u0120describing": 12059,
    "truth": 35310,
    "ometers": 40077,
    "belt": 37976,
    "AP": 2969,
    "raint": 16947,
    "verbs": 46211,
    "303": 22572,
    "210": 21536,
    "\u0120denominations": 49735,
    "\u0138": 244,
    "\u0120LS": 30948,
    "\u0120invariably": 31338,
    "\u0120Payne": 32788,
    "hands": 43365,
    "asher": 31218,
    "Tur": 17483,
    "tv": 14981,
    "\u0120Wyoming": 24533,
    "\u0120Pierce": 23023,
    "\u0120ISS": 33805,
    "great": 18223,
    "\u0120comprised": 19869,
    "atha": 30921,
    "\u0120lav": 21606,
    "\u0120Pelosi": 29611,
    "\u0120\u00e2\u0136\u013e\u00e2\u0136\u0122\u00e2\u0136\u0122": 35306,
    "bing": 4623,
    "\u0120Elven": 40748,
    "enged": 47422,
    "\u0120gambling": 19029,
    "\u0120splash": 22870,
    "plane": 14382,
    "ugg": 6837,
    "\u0120[...]": 26894,
    "regation": 43068,
    "maybe": 25991,
    "px": 8416,
    "\u0120KY": 33668,
    "\u0120negligible": 36480,
    "\u0120CBI": 47970,
    "pherd": 23111,
    "\u0120threatening": 11123,
    "\u0120off": 572,
    "Fall": 24750,
    "\u0120bubbles": 25037,
    "Road": 29197,
    "Pakistan": 38485,
    "client": 16366,
    "\u0120Hitler": 11908,
    "Hyd": 40436,
    "\u0120welcoming": 22516,
    "\u0120drills": 26721,
    "\u0120irregularities": 48302,
    "Z": 57,
    "\u0120separately": 13869,
    "Secret": 23725,
    "alist": 49845,
    "\u0120lanes": 15296,
    "\u0120rider": 17876,
    "\u0120aboriginal": 48328,
    "forming": 15464,
    "\u0120ministries": 45933,
    "\u0120115": 12279,
    "87": 5774,
    "ion": 295,
    "Inc": 25517,
    "\u0120Bates": 35591,
    "\u0120kidnapping": 25201,
    "\u0120Macro": 42755,
    "\u0120delivered": 6793,
    "\u0120recalling": 38203,
    "\u0120exhausted": 19064,
    "\u0120delegates": 15265,
    ".)": 2014,
    "pid": 35317,
    "\u0120SAF": 37630,
    "\u0120Charlotte": 14685,
    "Shift": 33377,
    "\u0120Maharashtra": 41624,
    "Paper": 42950,
    "ORS": 20673,
    "\u0120Bonds": 39161,
    "fy": 24928,
    "Wil": 22327,
    "\u0120lands": 8604,
    "adeon": 12424,
    "\u0120mixing": 17090,
    "concert": 48415,
    "\u0120impaired": 22753,
    "\u0120Jenkins": 21835,
    "\u0120Commercial": 22724,
    "acher": 3493,
    "\u0120Hen": 6752,
    "\u0120Bush": 5511,
    "\u0120unofficial": 27220,
    "\u0120Gul": 23472,
    ">[": 36937,
    "FREE": 39274,
    "\u0120Tinder": 44043,
    "\u0120\u00d7": 14360,
    "abouts": 27880,
    "\u0120Kit": 10897,
    "\u0120library": 5888,
    "\u0120keynote": 37332,
    "\u0120Ti": 16953,
    "zin": 42140,
    "Fl": 7414,
    "\u0120firmly": 14245,
    "\u0120reforming": 40446,
    "\u0120Compliance": 40536,
    "Hur": 42633,
    "nce": 1198,
    "\u0120Tem": 5825,
    "racted": 20216,
    "\u0120telecommunications": 27473,
    "owler": 30014,
    "Bra": 42333,
    "\u0120novel": 5337,
    "LINE": 24027,
    "\u0120Uran": 33287,
    "\u0120lipid": 34073,
    "\u0120newly": 8308,
    "\u0120Chance": 11809,
    "\u0120Lester": 36508,
    "\u0120cramped": 43295,
    "\u0120\u00e3\u0124\u00b5\u00e3\u0125\u00bc\u00e3\u0125\u0128\u00e3\u0124\u00a3": 45544,
    "\u0120Petersen": 48604,
    "\u0120Hog": 22411,
    "ets": 1039,
    "\u0120Pok": 8175,
    "\u0120DB": 20137,
    "andi": 26800,
    "\u00e3\u0125\u00bc\u00e3\u0125": 12045,
    "\u0120Salmon": 43956,
    "Nation": 46108,
    "\u0120Refuge": 22433,
    "\u0120ambitious": 14742,
    "Room": 41178,
    "\u0120induction": 28471,
    "\u0120pledges": 31241,
    "lehem": 44797,
    "afia": 22214,
    "\u0120ace": 31506,
    "\u0120sour": 11348,
    "\u0120threatened": 8556,
    "\u0120latent": 41270,
    "\u0120sacrament": 49081,
    "rait": 12907,
    "\u0120rack": 19127,
    "\u0120Chan": 18704,
    "\u0120believe": 1975,
    "\u0120NW": 21966,
    "\u0120Kendall": 36779,
    "\u0120microw": 23479,
    "SHA": 37596,
    "\u0120olds": 44979,
    "\u0120deported": 27434,
    "270": 20233,
    "\u0120Normally": 29282,
    "elines": 20655,
    "PG": 6968,
    "\u0120nowadays": 26760,
    "\u0120topped": 20633,
    "\u0120Abrams": 32414,
    "\u0120citrus": 35405,
    "\u00e0\u00a9": 43297,
    "Michael": 13256,
    "\u0120Stack": 23881,
    "atur": 2541,
    "\u0120plag": 19640,
    "\u0120mishand": 49530,
    "\u0120east": 7627,
    "\u0120lizard": 42406,
    "\u0120elaborated": 45934,
    "\u0120Role": 20934,
    "ldon": 25900,
    "Fre": 20366,
    "72": 4761,
    "\u0120Shapiro": 34034,
    "SO": 15821,
    "\u0120contraception": 27503,
    "att": 1078,
    "\u0120Antarctica": 30185,
    "\u0120primary": 4165,
    "\u0120splend": 32394,
    "\u0120Heart": 8894,
    "Number": 15057,
    "\u0120mixer": 33938,
    "\u0120fight": 1907,
    "\u0120cle": 1190,
    "ajor": 1518,
    "tics": 14094,
    "\u0120militant": 18614,
    "\u0120Alien": 17610,
    "chrom": 28663,
    "\u0120Swanson": 47528,
    "\u0120sweaty": 47599,
    "\u0120slapping": 48966,
    "moon": 22977,
    "\u0120escort": 27675,
    "\u0120Je": 3852,
    "FAULT": 38865,
    "\u0120Ar": 943,
    "\u0120supper": 43743,
    "\u00e3\u0124\u00b6": 48458,
    "\u0120PV": 31392,
    "\u0120Linux": 7020,
    "\u0120Rogue": 16432,
    "\u0120264": 32158,
    "\u0120Null": 35886,
    "\u0120esports": 37407,
    "\u0120bart": 30539,
    "\u0120ending": 7464,
    "\u0120applauded": 38911,
    "\u0120Readers": 41969,
    "\u0120pupp": 13595,
    "righteous": 49955,
    "ading": 4980,
    "\u0120extermin": 42393,
    "\u0120squads": 31477,
    "AT": 1404,
    "Dec": 10707,
    "Nut": 49004,
    "\u0120commun": 1316,
    "Orig": 11610,
    "\u0120Satisf": 48168,
    "\u0120Moscow": 9070,
    "\u0120JUSTICE": 49687,
    "\u0120tab": 7400,
    "natural": 11802,
    "\u0120partial": 13027,
    "\u0120menu": 6859,
    "SH": 9693,
    "\u0120clerk": 21120,
    "\u0120ginger": 25072,
    "\u0120quaint": 50127,
    "\u0120penned": 34989,
    "\u0120proficient": 39318,
    "\u0120Nordic": 35834,
    "\u0120innov": 6237,
    "\u0120Compet": 38558,
    "\u0120dungeons": 33062,
    "Bur": 22991,
    "\u0120buyer": 17872,
    "\u0120effected": 43495,
    "target": 16793,
    "\u01201949": 24977,
    "\u0120caliphate": 48051,
    "\u0120greatest": 6000,
    "\u01201906": 40538,
    "\u0120supplementation": 30306,
    "ero": 3529,
    "\u0120Cyborg": 46114,
    "\u0120objectionable": 48540,
    "\u0120Wings": 17330,
    "\u0120dresses": 27309,
    "047": 48000,
    "\u0120File": 9220,
    "\u0120upward": 18644,
    "\u0120Script": 12327,
    "\u0120friend": 1545,
    "\u0120tension": 12097,
    "\u0120Index": 12901,
    "\u0120adul": 19046,
    "hours": 24425,
    "inational": 26201,
    "\u0120gunfire": 29276,
    "hower": 33539,
    "enaries": 30216,
    "\u0120Presbyter": 40507,
    "\u0120appliances": 29834,
    "\u0120PT": 19310,
    "\u0120Survivors": 45998,
    "\u0120conduct": 3189,
    "\u0120bis": 47457,
    "odes": 4147,
    "\u0120HY": 43624,
    "\u0120spider": 19230,
    "isp": 8802,
    "ci": 979,
    "\u0120Fraz": 36914,
    "\u0120Common": 8070,
    "you": 5832,
    "\u0120benches": 43183,
    "\u0120sudden": 4802,
    "\u0120hell": 5968,
    "\u0120caring": 18088,
    "urious": 16421,
    "\u0120MMA": 19055,
    "Laura": 43687,
    "Charl": 24453,
    "atography": 45501,
    "\"": 1,
    "\u0120stands": 6296,
    "\u0120ske": 6146,
    "\u0120beneficiaries": 28237,
    "template": 28243,
    "\u0120remedy": 21210,
    "igslist": 40704,
    "\u0120proclaimed": 25546,
    "\u0120Ramos": 36692,
    "\u0120horny": 42014,
    "Ali": 37893,
    "sburgh": 11931,
    "wcsstore": 12781,
    "cipled": 41296,
    "bil": 33473,
    "\u0120obedience": 28777,
    "\u0120importing": 33332,
    "\u0120connects": 20417,
    "ATURE": 40086,
    "\u0120Bale": 43248,
    "\u0120hapl": 42519,
    "\u0120prompt": 6152,
    "\u0120elite": 9085,
    "\u0120accelerated": 23312,
    "\u0120Jonathan": 11232,
    "chool": 1251,
    "\u0120active": 4075,
    "\u0120bull": 6473,
    "\u0120Fuj": 32671,
    "\u0120Dominic": 36401,
    "\u0120turrets": 41104,
    "\u00e3\u0124\u00b9\u00e3\u0125\u012a": 43302,
    "\u0120PUBLIC": 44731,
    "roo": 42407,
    "\u0120newer": 15064,
    "\u0120damage": 2465,
    "years": 19002,
    "gas": 22649,
    "gin": 1655,
    "H": 39,
    "\u0120disruptive": 28094,
    "\u0120Giuliani": 43126,
    "\u00e6\u0122": 45250,
    "\u0120discovered": 5071,
    "hips": 5748,
    "\u0120antit": 26092,
    "vc": 28435,
    "\u0120Hearing": 34663,
    "\u0120Grizzlies": 40669,
    "ultural": 8596,
    "\u0120equivalent": 7548,
    "\u0120AL": 8355,
    "\u0120Barb": 10593,
    "\u0120depressed": 19095,
    "flake": 47597,
    "\"]": 8973,
    "God": 13482,
    "\u0120zip": 19974,
    "\u0120Sur": 4198,
    "Here": 4342,
    "Learn": 20238,
    "iggle": 24082,
    "ization": 1634,
    "\u0120Research": 4992,
    "\u0120Ap": 5949,
    "\u0120economists": 16816,
    "\u0120regulated": 17153,
    "\u0120opp": 1269,
    "\u0120battlefield": 13480,
    "\u0120Simple": 17427,
    "\u0120atheist": 25222,
    "\u0120paranoid": 30285,
    "\u0120Deploy": 34706,
    "\u0120Hale": 35056,
    "\u0120suggests": 5644,
    "hazard": 37598,
    "\u0120accommod": 8930,
    "\u0120productivity": 13714,
    "Modern": 31439,
    "rocal": 43270,
    "\u0120Ish": 24303,
    "\u0120bodies": 5920,
    "OC": 4503,
    "itone": 49644,
    "\u0120300": 5867,
    "\\\",": 34607,
    "\u0120Revis": 46146,
    "\u0120Ev": 4319,
    "\u0120weigh": 10164,
    "ees": 2841,
    "\u0120serum": 20502,
    "\u0120Except": 18181,
    "\u0120observation": 13432,
    "\u0120bilateral": 24537,
    "\u0120assimil": 36659,
    "\u0120taunt": 48146,
    "\u0120Rock": 4631,
    "\u0120Prosecutor": 37478,
    "\u0120Defendant": 43402,
    "692": 46589,
    "\u0120simulator": 35375,
    "\u0120Ut": 7273,
    "\u0120companions": 19429,
    "\u0120eluc": 49031,
    "\u0120Garrett": 27540,
    "1991": 24529,
    "\u0120Canaveral": 49433,
    "\u0120Universe": 11950,
    "orians": 45825,
    "\u0120CK": 45233,
    "\u0120shorter": 12238,
    "riers": 8910,
    "\u0120searches": 15455,
    "\u0120Tribune": 17588,
    "\u0120Knowing": 29154,
    "\u0120inspir": 32285,
    "resident": 8154,
    "\u0120perl": 48746,
    "ises": 2696,
    "\u0120annexation": 41329,
    "\u0120Transgender": 44002,
    "VOL": 44558,
    "\u0120shell": 7582,
    "terrorist": 42002,
    "\u0120powerful": 3665,
    "\u0120concent": 5280,
    "\u0120abyss": 37678,
    "iam": 1789,
    "\u0120Pete": 17542,
    "versible": 37393,
    "\u0120Frames": 36291,
    "\u0120Skills": 20389,
    "\u0120Ober": 33753,
    "\u0120fortunate": 20200,
    "\u0120jarring": 47300,
    "ESS": 7597,
    "\u0120Bond": 12812,
    "\u0120Edinburgh": 23475,
    "\u0120Worst": 33443,
    "\u0120cycle": 6772,
    "\u0120Conquer": 40963,
    "\u0120Mini": 12558,
    "\u0120Twe": 24205,
    "\u0120efficient": 6942,
    "util": 22602,
    "\u0120Ung": 44904,
    "\u0120urge": 14960,
    "%,": 7441,
    "%%": 16626,
    "\u0120workout": 17578,
    "\u0120Colombian": 40351,
    "Vari": 23907,
    "gom": 19120,
    "Parent": 24546,
    "\u0120pristine": 37293,
    "\u0120Mexico": 5828,
    "\u0120sin": 7813,
    "\u0120Website": 15887,
    "\u0120MO": 13070,
    "\u0120perverse": 43060,
    "Georgia": 41072,
    "!!!!": 13896,
    "\u0120Fraud": 39826,
    "\u0120Yo": 25455,
    "\u0120nep": 25919,
    "ettlement": 27331,
    "foreseen": 44952,
    "ghan": 6064,
    "\u0120timed": 28805,
    "\u0120modulation": 39007,
    "ys": 893,
    "Key": 9218,
    "\u0120locate": 17276,
    "\u0120Jem": 48199,
    "hea": 21632,
    "\u0120Paradise": 20494,
    "Battery": 47006,
    "\u0120Fantastic": 27948,
    "\u0120Jones": 5437,
    "\u01201960": 9507,
    "rought": 2909,
    "\u0120Zoo": 21980,
    "\u0120micro": 4580,
    "662": 39380,
    "\u0120Lords": 18651,
    "DEC": 41374,
    "\u0120creation": 6282,
    "\u0120recalls": 16865,
    "\u0120extinction": 21935,
    "\u0120insepar": 50140,
    "ATOR": 25633,
    "\u0120badges": 37583,
    "\u0120tournaments": 18130,
    "famous": 45143,
    "\u0120fleeing": 19105,
    "\u0120spirits": 13747,
    "Screen": 23901,
    "\u0120Australian": 6638,
    "vernment": 11355,
    "\u012060": 3126,
    "\u0120Adjust": 20292,
    "\u0120found": 1043,
    "213": 26427,
    "\u0120incomp": 13352,
    "\u0120rabbi": 47326,
    "\u0120Mohamed": 27469,
    "\u0120Barr": 27883,
    "\u0120Garr": 46619,
    "ador": 7079,
    "\u0120measurable": 40757,
    "\u0120intend": 14765,
    "Center": 23656,
    "\u0120bald": 28273,
    "\u0120terr": 8812,
    "ascript": 15961,
    "reen": 1361,
    "adding": 26872,
    "\u0120syrup": 24208,
    "\u0120muttered": 34042,
    "\u0120trustworthy": 34412,
    "Sab": 39646,
    "\u0120pneum": 29631,
    "\u0120seismic": 37463,
    "rities": 19491,
    "\u0120Vive": 29237,
    "PUT": 30076,
    "awei": 38247,
    "\u0120committees": 17460,
    "iders": 4157,
    "\u0120Lit": 25659,
    "\u0120pretending": 23662,
    "different": 39799,
    "\u0120Manip": 35045,
    "\u0120totally": 6635,
    "\u0120Rogers": 15372,
    "\u0120hem": 16869,
    "config": 11250,
    "Aren": 43199,
    "\u0120Inf": 4806,
    "\u0120Its": 6363,
    "\u0120335": 37144,
    "ARCH": 31315,
    "\u0120MIA": 44903,
    "\u0120DMV": 49887,
    "ULE": 24212,
    "\u0120Movies": 27151,
    "\u0120addictive": 28389,
    "\u00e3\u0125\u00bc\u00e3\u0125\u00b3": 31708,
    "\u0120riches": 35000,
    "\u0120elemental": 25601,
    "\u0120Nut": 11959,
    "BUG": 12953,
    "sein": 20719,
    "\u0120alerts": 21675,
    "trip": 39813,
    "\u0120Now": 2735,
    "\u0120squad": 8244,
    "\u0120weighs": 24034,
    "\u0120OK": 7477,
    "\u0120timeout": 26827,
    "\u0120kidn": 12668,
    "ersed": 20204,
    "akin": 27048,
    "ifacts": 37199,
    "\u0120296": 41922,
    "09": 2931,
    "\u0120defic": 12630,
    "ulously": 18117,
    "\u0120foe": 22156,
    "\u0120Flower": 20025,
    "\u0120speeding": 26347,
    "Width": 30916,
    "\u0120overload": 31754,
    "arov": 42737,
    "\u00e4\u00b8\u012b": 49011,
    "rane": 14579,
    "\u0120flirt": 44109,
    "Resource": 26198,
    "\u0120Abram": 39631,
    "isable": 43942,
    "\u0120Craig": 13854,
    "\u0120Ban": 10274,
    "\u0120impover": 30956,
    "\u0120shoot": 2686,
    "\u0120dry": 5894,
    "ttes": 13036,
    "folio": 13652,
    "\u0120Belgian": 21402,
    "\u0120Mesa": 26670,
    "\u0120cyclist": 34632,
    "\u0120Pyr": 27958,
    "ALS": 23333,
    "\u0120lightweight": 18700,
    "endon": 43153,
    "Hispanic": 43830,
    "\u0120arrange": 21674,
    "\u0120promul": 38040,
    "\u0120bombing": 13471,
    "\u0120possess": 8588,
    "bits": 9895,
    "GET": 18851,
    "\u0120Shanghai": 21865,
    "\u0120hust": 33376,
    "\u0120Stephens": 37072,
    "\u0120civilization": 14355,
    "\u00a2": 95,
    "\u0120preserves": 43759,
    "\u0120Having": 11136,
    "Main": 13383,
    "\u00c2\u00ae,": 45088,
    "\u0120Boat": 30828,
    "\u0120record": 1700,
    "\u0120inline": 26098,
    "ateg": 2397,
    "\u0120collabor": 6967,
    "Merit": 21583,
    "Button": 21864,
    "\u0120Repair": 28912,
    "\u0120frequency": 8373,
    "\u0120infused": 37681,
    "\u0120Sixth": 28980,
    "\u0120conclusion": 7664,
    "\u0120Additional": 15891,
    "\u0120idea": 2126,
    "sey": 4397,
    "\u0120trail": 8025,
    "\u0120internally": 20947,
    "\u0120predecessor": 18476,
    "\u0120mk": 33480,
    "\u0120experiment": 6306,
    "\u00da": 150,
    "\u0120BO": 16494,
    "\u0120Crimson": 18722,
    "\u0120VIII": 25197,
    "\u0120Malcolm": 20002,
    "\u0120Gonzalez": 24416,
    "\u0120eliminated": 15254,
    "\u0120wrist": 15980,
    "\u0120Dome": 31390,
    "\u0120Rece": 19520,
    "\u0120nightmares": 33301,
    "\u0120Californ": 37704,
    "\u0120HC": 27327,
    "\u0120ratified": 39067,
    "\u0120ven": 8710,
    "leys": 21325,
    "seless": 10950,
    "\u0120firepower": 36661,
    "\u0120Chromebook": 39767,
    "\u0120Carnival": 40886,
    "uitous": 42412,
    "\u0120losers": 29502,
    "\u0120Miracle": 33292,
    "bard": 23024,
    "Fab": 43957,
    "\u0120fermented": 44543,
    "\u0120Shu": 32344,
    "\u0120Too": 14190,
    "\u0120pots": 32195,
    "izing": 2890,
    "\u0120donation": 13784,
    "\u0120Dign": 43674,
    "ame": 480,
    "\u0120misplaced": 43746,
    "\u0120carpet": 20710,
    "paralle": 37083,
    "\u0120Inqu": 17193,
    "ology": 1435,
    "\u0120path": 3108,
    "\u012003": 7643,
    "File": 8979,
    "iability": 12455,
    "\u0120explode": 22818,
    "\u0120luggage": 31488,
    "oppers": 37186,
    "blown": 31290,
    "\u0120(\"": 5855,
    "\u0120\u00e2\u0138": 11019,
    "make": 15883,
    "ifter": 18171,
    "fml": 38122,
    "\u0120Lisp": 38593,
    "Attempt": 37177,
    "Republicans": 28455,
    "Considering": 40475,
    "oddy": 38553,
    "\u0120multit": 41785,
    "\u00e3\u0125\u00bc\u00e3\u0125\u0128": 44326,
    "olulu": 39814,
    "\u0120HE": 11179,
    "\u0120Punjab": 33328,
    "Ken": 27827,
    "\u0120accepting": 12598,
    "pec": 43106,
    "\u0120dividends": 26360,
    "\u0120tx": 27765,
    "yton": 31616,
    "\u0120Berks": 45167,
    "mits": 24883,
    "\u0120assaulting": 31540,
    "\u0120Duck": 21867,
    "agents": 49638,
    "Rick": 33048,
    "\u0120special": 2041,
    "\u0120upper": 6727,
    "\u0120**": 12429,
    "\u0120Control": 6779,
    "\u0120biom": 27488,
    "\u0120fiction": 10165,
    "MR": 13599,
    "\u0120Hades": 36857,
    "\u0120capac": 18457,
    "particip": 48013,
    "\u0120Atmosp": 33276,
    "\u0120Yellowstone": 47257,
    "\u0120Overt": 46067,
    "\u0120(_": 44104,
    "\u0120achieving": 16937,
    "\u0120nobody": 8168,
    "Ra": 21762,
    "\u0120Kai": 22091,
    "emb": 24419,
    "\u0120displaying": 19407,
    "\u0120SAM": 28844,
    "Property": 21746,
    "\u0120Yoshi": 38936,
    "ators": 2024,
    "char": 10641,
    "194": 22913,
    "diagn": 47356,
    "alter": 47653,
    "\u0120Florence": 28537,
    "\u0120palate": 44100,
    "\u0120synerg": 39209,
    "\u0120Pharma": 41845,
    "\u0120tweak": 25393,
    "\u0120impl": 4114,
    "\u0120remove": 4781,
    "\u0120bought": 5839,
    "itching": 19811,
    "vert": 1851,
    "Calling": 48593,
    "\u0120Online": 7467,
    "\u0120bul": 4807,
    "\u0120nationwide": 13673,
    "\u0120ended": 4444,
    "\u0120parity": 34383,
    "\u0120Eps": 43427,
    "ometown": 19191,
    "enced": 5864,
    "\u0120KP": 45814,
    "\u0120meets": 11185,
    "\u0120crystal": 15121,
    "orts": 2096,
    "life": 6042,
    "\u0120Again": 6521,
    "\u0120tragic": 15444,
    "\u0120realizes": 23660,
    "fly": 12254,
    "ocked": 3543,
    "\u0120learnt": 26338,
    "formance": 10367,
    "\u0120sleek": 33143,
    "\u0120Jim": 5395,
    "\u0120females": 12366,
    "}}": 11709,
    "\u0120startling": 28027,
    "\u0120predictive": 33344,
    "director": 35248,
    "\u0120transpl": 37100,
    "ability": 1799,
    "\u0120Sik": 32615,
    "TP": 7250,
    "\u00e5\u00b8": 30585,
    "uese": 20506,
    "\u0120vouchers": 41262,
    "Mut": 41603,
    "\u0120fluent": 43472,
    "ibble": 43992,
    "\u0120marrow": 44173,
    ":{": 29164,
    "\u0120Zur": 35821,
    "\u0120forbidden": 19467,
    "\u0120351": 44417,
    "\u0120clinic": 15760,
    "ticket": 43350,
    "\u0120Einstein": 24572,
    "ournaments": 16950,
    "221": 26115,
    "\u0120PS": 6599,
    "\u0120Prism": 35417,
    "\u0120metic": 30762,
    "\u0120clip": 10651,
    "\u0120adult": 4044,
    "\u0120helping": 5742,
    "ruck": 30915,
    "Screenshot": 34204,
    "\u0120civilized": 34169,
    "version": 9641,
    "\u0120Fisher": 14388,
    "\u0120Rober": 4109,
    "\u0120presumably": 14572,
    "\u0120Weeks": 33259,
    "\u0120Unch": 34867,
    "\u0120abst": 16552,
    "\u0120399": 43927,
    "\u0120sauces": 50134,
    "\u0120footballer": 44185,
    "\u0120CPS": 32084,
    "\u0120\u00c2\u00b1": 6354,
    "\u0120reservations": 24722,
    "\u0120resist": 4180,
    "\u0120ax": 7877,
    "hra": 45056,
    "Pocket": 45454,
    "ilitary": 18748,
    "\u0120refused": 6520,
    "\u0120agile": 36710,
    "IVER": 38757,
    "Great": 13681,
    "\u0120Meg": 8336,
    "Near": 40640,
    "\u0120convol": 46968,
    "\u0120Umb": 35716,
    "\u0120LU": 50168,
    "lords": 19673,
    "\u0120Neighborhood": 37914,
    "\u0120perman": 6092,
    "Ide": 41452,
    "\u0120Slug": 41635,
    "\u0120gratification": 47459,
    "\u0120enhanced": 13105,
    "Marcus": 35110,
    "\u0120Alicia": 39607,
    "\u0120Yu": 10605,
    "\u0120touched": 12615,
    "\u0120squares": 24438,
    "\u01201901": 39923,
    "\u0120PVC": 46377,
    "\u0120converted": 11513,
    "\u0120Ambrose": 45263,
    "\u0120fees": 6642,
    "\u0120Hispanic": 16949,
    "bon": 4189,
    "ktop": 16201,
    "ologne": 30520,
    "\u0120viral": 14416,
    "\u0120popul": 16595,
    "152": 17827,
    "\".": 1911,
    "\u0120Neb": 29837,
    "\u0120Governors": 40056,
    "\u0120assemb": 11156,
    "Pokemon": 48034,
    "\u0120intensified": 32413,
    "\u0120crop": 13833,
    "\u0120Posts": 12043,
    "['": 17816,
    "ears": 4127,
    "\u0120wires": 19474,
    "assis": 20297,
    "\u0120Assuming": 33238,
    "\u0120guiIcon": 30211,
    "ova": 10071,
    "ships": 26313,
    "\u00e9\u00be\u012f\u00e5\u0138\u013c\u00e5\u00a3\u00ab": 33454,
    "\u0120Droid": 46546,
    "operator": 46616,
    "\u0120draft": 4538,
    "ental": 2470,
    "\u0120microbiota": 42784,
    "\u0120Unit": 11801,
    "\u0120episode": 4471,
    "\u0120sinister": 26592,
    "JR": 44817,
    "\u0120typ": 2170,
    "\u0120tem": 2169,
    "\u0120attraction": 17416,
    "\u0120Zheng": 44583,
    "\u0120transgress": 44780,
    "\u0120intrinsically": 48676,
    "\u0120blade": 11865,
    "\u0120incl": 13358,
    "Ms": 10128,
    "\u0120ignore": 8856,
    "\u0120constructive": 26938,
    "\u0120DC": 6257,
    "\u0120Weird": 34097,
    "***": 8162,
    "\u0120Pros": 27631,
    "\u0120Vapor": 43382,
    "cool": 24494,
    "\u0120Fifa": 49142,
    "\u0120wallets": 29608,
    "\u0120Thailand": 16952,
    "\u0120messaging": 19925,
    "\u0120awkwardly": 43622,
    "query": 22766,
    "\u0120lingu": 20280,
    "\u0120pan": 3425,
    "\u0120BA": 23715,
    "Normal": 26447,
    "ometimes": 6533,
    "\u0120feel": 1254,
    "jp": 34523,
    "HOU": 46685,
    "Policy": 36727,
    "angering": 49470,
    "\u0120bucks": 24780,
    "paces": 43076,
    "\u0120railway": 20515,
    "\u0120Indie": 31527,
    "\u0120Kop": 40500,
    "\u0120array": 7177,
    "\u0120Annie": 25860,
    "asting": 9222,
    "\u0120spac": 34752,
    "\u0120temporal": 21964,
    "\u0120intersection": 16246,
    "unique": 34642,
    "\u0120Fritz": 45954,
    "\u0120sense": 2565,
    "gaard": 36232,
    "\u0120gr": 1036,
    "\u00e3\u0124\u00a8\u00e3\u0125\u00ab": 46948,
    "\u0120mixture": 11710,
    "\u0120Oregon": 8819,
    "manac": 46870,
    "CIA": 49732,
    "era": 8607,
    "illac": 40607,
    "\u0120Haunted": 43884,
    "\u0120Defender": 25533,
    "ablish": 17148,
    "omedical": 35914,
    "\u0120conveniently": 29801,
    "alities": 27969,
    "\u0120compl": 2299,
    "\u0120fundament": 14387,
    "AK": 10206,
    "\u0120bona": 41602,
    "\u0120Alec": 38285,
    "\u00c2\u00a3": 14988,
    "Third": 22747,
    "osition": 3507,
    "\u0120willingness": 16826,
    "\u0120qu": 627,
    "door": 9424,
    "\u0120Ub": 12021,
    "arding": 13493,
    "olver": 14375,
    "\u0120round": 2835,
    "\u0120Op": 8670,
    "\u0120flame": 16506,
    "Int": 5317,
    "\u0120conf": 1013,
    "\u0120linking": 17795,
    "\u0120deficits": 22729,
    "\u0120thick": 6546,
    ".*": 15885,
    "\u0120bitcoins": 22690,
    "\u0120partnerships": 22867,
    "\u0120no": 645,
    "\u0120queer": 24506,
    "\u0120glaring": 29097,
    "\u0120Charlie": 11526,
    "\u0120texture": 11743,
    "\u0120sports": 5701,
    "uce": 7234,
    "\u0120Scandinav": 29410,
    "\u0120League": 4041,
    "idable": 23321,
    "\u0120refrigerator": 30500,
    "Ram": 33754,
    "idential": 35599,
    "hot": 8940,
    "\u0120logical": 12219,
    "Recommended": 36171,
    "\u0120Feedback": 37774,
    "\u0120Computing": 38589,
    "\u0120KH": 40249,
    "\u0120Wiz": 41122,
    "\u0120marqu": 44054,
    "Narr": 45750,
    "\u0120intensify": 47697,
    "ett": 3087,
    "adow": 4584,
    "conf": 10414,
    "\u0120Rac": 24746,
    "\u0120fixtures": 34609,
    "\u0120FedEx": 45212,
    "Create": 16447,
    "\u0120disenfranch": 41307,
    "UU": 30100,
    "\u0120Belief": 49728,
    "\u01209000": 50138,
    "\u0120unanimous": 28085,
    "\u0120learners": 46184,
    "inations": 7352,
    "cells": 46342,
    "\u0120immun": 16217,
    "\u00fc": 184,
    "\u0120rest": 1334,
    "\u0120Hin": 29094,
    "\u0120CL": 7852,
    "otics": 23891,
    "\u0120level": 1241,
    "window": 17497,
    "\u01201600": 26143,
    "efficient": 16814,
    "\u0120ERROR": 33854,
    "\u0120abducted": 34682,
    "\u0120dataset": 27039,
    "\u0120OG": 34498,
    "\u0120smashing": 35233,
    "\u0120Personnel": 41623,
    "WOR": 45359,
    "\u00e3\u0123\u00a7": 30640,
    "\u0120User": 11787,
    "\u0120Wond": 31960,
    "\u0120warped": 43062,
    "\u0120killed": 2923,
    "\u0120brightness": 22204,
    "\u0120Certificate": 27895,
    "unk": 2954,
    "\u0120Serge": 14465,
    "\u0120buttons": 12163,
    "ubb": 33670,
    "\u0120contraceptive": 37832,
    "\u0120Mich": 2843,
    "Wallet": 47152,
    "\u0120irritated": 38635,
    "pta": 32283,
    "\u00e7\u00ab": 44165,
    "\u0120650": 22626,
    "hemat": 10024,
    "fu": 20942,
    "\u0120linear": 14174,
    "\u0120Hod": 22816,
    "\u0120supply": 5127,
    "\u0120diseases": 10040,
    "\u0120ill": 2801,
    "\u0120Van": 6656,
    "psons": 31410,
    "\u0120Sauce": 37618,
    "\u0120Printing": 44118,
    "\u0120fitted": 18235,
    "Requirements": 42249,
    "\u0120bec": 639,
    "UL": 6239,
    "Rot": 24864,
    "\u0120hippocamp": 28253,
    "\u0120ale": 31341,
    "CR": 9419,
    "Christ": 10684,
    "328": 34256,
    "\u0120Kimber": 36015,
    "\u0120poisonous": 32199,
    "ashtra": 38535,
    "\u0120digs": 46561,
    "Role": 47445,
    "escal": 47647,
    "\u0120reality": 3950,
    "\u0120bone": 9970,
    "paren": 11730,
    "COLOR": 46786,
    "\u0120NYU": 48166,
    "\u0120Hess": 46305,
    "Float": 43879,
    "risis": 42841,
    "\u0120STAT": 15486,
    "\u0120Elixir": 42652,
    "\u0120For": 1114,
    "\u0120destroying": 13897,
    "\u00e3\u0124\u012b": 36853,
    "====": 1421,
    "\u0120webs": 2639,
    "\u0120extrem": 8963,
    "\u0120prostate": 26711,
    "\u0120MMO": 30156,
    "\u0120directs": 32254,
    "\u0120Suicide": 27695,
    "\u0120Nat": 14393,
    "irling": 24297,
    "plete": 6677,
    "\u0120fresh": 4713,
    "\u00e9\u0139": 29785,
    "\u0120emitted": 31234,
    "\u0120replicated": 35108,
    "\u0120concentrations": 14587,
    "\u0120Newsweek": 39594,
    "\u0120Mor": 3461,
    "\u0120incidental": 40521,
    "\u0120Arpaio": 46861,
    "\u0120Guitar": 31550,
    "arenthood": 17117,
    "rences": 34303,
    "\u0120Despite": 7945,
    "Middle": 34621,
    "rent": 1156,
    "illusion": 35760,
    "\u0120marriage": 4845,
    "\u0120228": 29041,
    "say": 16706,
    "ouple": 43846,
    "\u0120time": 640,
    "\u0120Gerry": 42196,
    "Tang": 43909,
    "needs": 50032,
    "\u0120indicate": 7603,
    "\u0120Ferguson": 15031,
    "Medic": 39112,
    "\u0120imm": 2296,
    "\u0120gloom": 30338,
    "\u0120boobs": 41050,
    "\u0120WHO": 19494,
    "\u0120overboard": 49265,
    "ber": 527,
    "\u0120richer": 26192,
    "\u0120thank": 5875,
    "\u00e2\u0122\u0136\u00e2\u0122\u0136\u00e2\u0122\u0136\u00e2\u0122\u0136\u00e2\u0122\u0136\u00e2\u0122\u0136\u00e2\u0122\u0136\u00e2\u0122\u0136\u00e2\u0122\u0136\u00e2\u0122\u0136\u00e2\u0122\u0136\u00e2\u0122\u0136\u00e2\u0122\u0136\u00e2\u0122\u0136\u00e2\u0122\u0136\u00e2\u0122\u0136": 30542,
    "fighting": 26594,
    "\u0120singing": 13777,
    "\u0120Louisville": 21525,
    "\u0120Rescue": 17285,
    "]=": 22241,
    "cess": 919,
    "\u0120Prim": 11460,
    "rients": 18491,
    "\u0120Constantine": 44665,
    "ao": 5488,
    "Select": 17563,
    "esthesia": 34811,
    "\u0120goal": 3061,
    "\u0120key": 1994,
    "aki": 8182,
    "uxe": 18095,
    "\u0120Publication": 45065,
    "\u0120Bicycle": 48444,
    "\u0120Forth": 50095,
    "\u0120Half": 13139,
    "\u0120training": 3047,
    "\u0120pleaded": 16407,
    "\u0120research": 2267,
    "\u0120tuned": 16524,
    "\u0120attributed": 14183,
    "\u0120traced": 23246,
    "\u0120Ma": 6669,
    "\u0120laundering": 27194,
    "eker": 28233,
    "\u0120Based": 13403,
    "\u0120strained": 30744,
    "undown": 41609,
    "bole": 45693,
    "\u0120shampoo": 47259,
    "redible": 26260,
    "\u0120loudspe": 48792,
    "TS": 4694,
    "inner": 5083,
    "\u0120Wester": 32104,
    "ansk": 34738,
    "\u0120quadru": 40977,
    "\u0120overwrite": 49312,
    "\u0120congen": 41174,
    "\u0120lawsuits": 17785,
    "\u0120knows": 4206,
    "\u0120face": 1986,
    "\u0120Stewart": 13671,
    "\u0120generally": 4143,
    "\u0120Machine": 10850,
    "\u0120Pirates": 20169,
    "ISION": 42446,
    "\u0120illness": 8526,
    "\u0120Creating": 30481,
    "ubuntu": 32230,
    "\u0120Give": 13786,
    "\u0120Frie": 45890,
    "Pattern": 47546,
    "\u0120Social": 5483,
    "\u0120unrelated": 19938,
    "\u0120loss": 2994,
    "\u0120Tray": 34575,
    "\u0120Tam": 11552,
    "ocument": 7990,
    "\u0120THESE": 48947,
    "XM": 37643,
    "\u0120hyd": 7409,
    "\u0120Library": 10074,
    "\u0120GET": 17151,
    "\u0120Intent": 39168,
    "\u0120Application": 15678,
    "\u0120Rex": 17853,
    "\u0120blazing": 37019,
    "\u0120oblivious": 38603,
    "\u0120trembling": 39228,
    "\u0120Loft": 49416,
    "elsius": 32495,
    "\u0120however": 2158,
    "\u0120Y": 575,
    "Cross": 21544,
    "\u0120vengeance": 30657,
    "iu": 16115,
    "\u0120hull": 23644,
    "Question": 24361,
    "\u0120Weiss": 16152,
    "\u0120TIM": 31742,
    "\u0120awakening": 33971,
    "\u0120mull": 35024,
    "\u0120dw": 43756,
    "\u00e3\u0123\u0128": 29557,
    "\u0120par": 1582,
    "\u0120explains": 6688,
    "123": 10163,
    "\u0120Tar": 14110,
    "\u00e5\u00a3\u00ab": 18803,
    "Ag": 10262,
    "\u0120summon": 11457,
    "Mex": 24670,
    "rac": 11510,
    "Ps": 12016,
    "\u0120absence": 8889,
    "\u0120Sentinel": 26716,
    "\u0120tempor": 10042,
    "\u0120broadcast": 7025,
    "\u0120imped": 26795,
    "\u0120Ras": 28513,
    "allel": 29363,
    "'?": 30960,
    "\u0120slug": 31065,
    "\u0120back": 736,
    "\u0120educating": 36267,
    "Ped": 43468,
    "\u0120neurological": 30232,
    "\u0120whats": 45038,
    "afort": 24515,
    "\u0120cloves": 45025,
    "\u0120Cust": 40619,
    "\u0120shredded": 37624,
    "eki": 39548,
    "\u0120definitive": 17347,
    "\u0120debit": 30977,
    "\u0120Til": 40422,
    "\u0120Accountability": 37159,
    "\u0120abroad": 10522,
    "hes": 956,
    "\u0120Satanic": 41518,
    "\u0120'.": 45302,
    "\u0120relentlessly": 37952,
    "\u0120uneven": 30690,
    "\u0120define": 8160,
    "\u0120counting": 14143,
    "\u0120pleasant": 15497,
    "adia": 29523,
    "\u0120recognised": 20915,
    "\u0120Express": 10604,
    "\u0120expended": 37328,
    "\u0120Wilson": 8127,
    "\u0120memoir": 24649,
    "ews": 15515,
    "\u0120slicing": 49289,
    "\u0120pos": 1426,
    "\u0120sou": 24049,
    "\u0120subscriptions": 35675,
    "\u0120Onion": 34733,
    "\u0120Rite": 47810,
    "\u0120regained": 35049,
    "\u0120Point": 6252,
    "\u0120presume": 36059,
    "\u0120Ender": 45322,
    "/-": 16327,
    "\u0120strands": 36593,
    "\u0120dece": 12738,
    "\u0120Blackwell": 40622,
    "\u0120protein": 7532,
    "\u0120grapp": 21338,
    "\u0120trader": 31791,
    "\u0120unaware": 17261,
    "\u0120begs": 38609,
    "\u0120Repl": 18407,
    "\u0120Radiant": 34145,
    "\u0120al": 435,
    "\u0120Scarlet": 26620,
    "NB": 32819,
    "\u0120Quake": 42901,
    "\u0120perf": 23035,
    "\u0120Merchants": 44682,
    "\u0120dug": 18735,
    "\u0120Launch": 21225,
    "\u0120Ens": 48221,
    "\u0120Tut": 22792,
    "\u0120sets": 5621,
    "\u0120Close": 13872,
    "\u0120Plant": 16561,
    "\u0120tomato": 24240,
    "\u0120Loc": 15181,
    "\u0120Dimensions": 41265,
    "\u0120bulletin": 40813,
    "controlled": 14401,
    "\u0120GPS": 15472,
    "\u0120lasted": 15436,
    "atch": 963,
    "\u0120Planned": 18451,
    "\u0120Army": 5407,
    "/$": 32624,
    "\u0120Mega": 13421,
    "\u0120recycled": 32099,
    "\u0120Scy": 32252,
    "\u0120bundled": 34358,
    "ucl": 36616,
    "\u0120equitable": 37164,
    "\u0120NEC": 41804,
    "crew": 42276,
    "\u0120Indonesian": 28259,
    "\u0120Honolulu": 43296,
    "\u0120mall": 17374,
    "opoulos": 20338,
    "\u0120Drop": 14258,
    "\u0120Rebel": 24551,
    "\u0120generously": 42088,
    "\u0120Peb": 42507,
    "ribune": 44130,
    "Un": 3118,
    "database": 48806,
    "raper": 38545,
    "\u0120chuckle": 43355,
    "\u0120Estimated": 47737,
    "271": 28977,
    "our": 454,
    "\u0120featuring": 9593,
    "ELY": 30943,
    "\u00d8\u00b3": 45692,
    "agame": 46746,
    "engine": 18392,
    "-\"": 21215,
    "Future": 29783,
    "\u0120redundancy": 49052,
    "\u0120sed": 10081,
    "\u0120ANG": 33278,
    "housing": 50028,
    "\u0120interoper": 48817,
    "\u0120intoxicated": 35344,
    "uca": 43120,
    "\u0120stupid": 8531,
    "\u0120Mash": 30870,
    "\u0120Proto": 45783,
    "\u0120biomark": 49951,
    "\u0120outright": 15828,
    "\u0120wished": 16555,
    "\u0120bearer": 49508,
    "\u0120Finding": 27063,
    "\u0120tweaked": 38304,
    "\u0120proclamation": 39862,
    "\u0120Presidency": 35696,
    "\u0120fully": 3938,
    "750": 15426,
    "\u0120fairness": 22692,
    "\u0120sexuality": 16641,
    "875": 31360,
    "\u0120PUR": 33079,
    "\u0120patriarch": 28915,
    "andestine": 35887,
    "\u0120BELOW": 45339,
    "\u0120Apply": 27967,
    "\u0120referendum": 11467,
    "\u0120handshake": 42231,
    "\u0120hardship": 30699,
    "\u0120PR": 4810,
    "\u0120horrible": 12361,
    "\u0120Chaos": 13903,
    "otional": 25453,
    "\u0120Screw": 42147,
    "\u0120panties": 31571,
    "Oak": 42426,
    "\u0120deeper": 9211,
    "\u0120Mand": 13314,
    "\u0120spat": 15246,
    "uum": 13814,
    "\u0120Noah": 18394,
    "magic": 32707,
    "\u0120entropy": 40709,
    "\u0120forecasting": 41164,
    "\u0120garner": 34679,
    "\u0120remote": 6569,
    "\u0120epilepsy": 35325,
    "\u0120men": 1450,
    "entry": 13000,
    "\u0120impressions": 25885,
    "\u0120restrictive": 26258,
    "\u0120WP": 28993,
    "\u0120LW": 38492,
    "\u0120--": 1377,
    "Boston": 31710,
    "\u0120FIN": 33642,
    "\u0120Challenger": 39221,
    "rous": 7596,
    "oshenko": 43934,
    "\u0120ABE": 44013,
    "\u0120OM": 32468,
    "stantial": 41321,
    "illery": 14920,
    "\u0120Painter": 49102,
    "\u0120metro": 24536,
    "\u0120thrilled": 20536,
    "\u0120Know": 9365,
    "\u0120broken": 5445,
    "\u0120IND": 24413,
    "\u0120circulating": 24495,
    "\u0120criticisms": 25094,
    "\u0120Stats": 20595,
    "aptic": 32963,
    "iction": 2867,
    "erved": 8520,
    "\u0120envelope": 22878,
    "enny": 11870,
    "\u0120will": 481,
    "government": 14480,
    "embed": 20521,
    "x": 87,
    "ectar": 44504,
    "skilled": 44885,
    "grid": 25928,
    "\u0120sizing": 47016,
    "\u00a5\u00b5": 35069,
    "\u0120SPR": 49068,
    "\u0120eas": 1396,
    "asu": 27345,
    "\u0120Intern": 2445,
    "\u0120Shannon": 28108,
    "\u0120trivial": 20861,
    "\u0120Brown": 4373,
    "\u0120statues": 25827,
    "uration": 3924,
    "!).": 19588,
    "\u0120SEAL": 36160,
    "\u0120Flav": 33026,
    "\u0120treating": 13622,
    "fusc": 37695,
    "ried": 2228,
    "\u0120looting": 39473,
    "ied": 798,
    "\u0120smir": 42821,
    "\u0120sting": 24276,
    "\u0120Laugh": 47501,
    "parents": 23743,
    "\u0120Orbital": 45453,
    "088": 46556,
    "aterial": 2273,
    "vertisement": 4060,
    "\u0120III": 6711,
    "122": 18376,
    "\u0120Browser": 34270,
    "ussen": 35951,
    "\u0120tolerated": 28197,
    "oenix": 8538,
    "\u0120Patriot": 26888,
    "\u0120broadly": 18633,
    "\u0120Gri": 20914,
    "SB": 16811,
    "\u0120Daniels": 28162,
    "\u0120clueless": 44865,
    "\u0120misunderstood": 33046,
    "\u0120bar": 2318,
    "ulty": 10672,
    "\u0120Olympus": 42108,
    "\u0120diam": 48428,
    "\u0120Cle": 3779,
    "estial": 21711,
    "\u0120indignation": 48689,
    "\u0120featured": 8096,
    "\u0120recognition": 9465,
    "\u012097": 10111,
    "\u0120KC": 25247,
    "iatric": 11439,
    "\u0120acid": 7408,
    "Lots": 43643,
    "\u0120Guarant": 34234,
    "GY": 31212,
    "\u0120ana": 44763,
    "iol": 1669,
    "oder": 12342,
    "\u0120shatter": 45131,
    "\u0120Lana": 47492,
    "\u0120stimulates": 49881,
    "\u0120progressed": 28775,
    "ar": 283,
    "\u00de": 154,
    "arez": 19655,
    "\u0120religions": 18879,
    "\u0120coined": 33115,
    "\u0120Posted": 12918,
    "\u0120Bashar": 24463,
    "\u0120folding": 29909,
    "\u0120Mund": 33324,
    "\u0120ultr": 23212,
    "\u0120les": 10287,
    "InstoreAndOnline": 40241,
    "used": 1484,
    "igon": 37107,
    "\u0120457": 47996,
    "\u0120Vanity": 46584,
    "\u0120colonial": 17091,
    "eret": 31229,
    "\u0120glyphosate": 38329,
    "hop": 8548,
    "lean": 13087,
    "\u0120polluted": 42340,
    "\u0121": 221,
    "\u0120pi": 31028,
    "\u0120move": 1445,
    "\u0120bathrooms": 32601,
    "STD": 32147,
    "\u0120climbs": 34332,
    "\u0120Voters": 35689,
    "\u0120HRC": 40512,
    "\u0120(>": 45160,
    "white": 11186,
    "\u0120Haven": 21425,
    "\u0120DON": 23917,
    "\u0120FAR": 39024,
    "Cod": 43806,
    "\u0120Should": 10358,
    "mm": 3020,
    "\u0120Hydra": 31613,
    "\u0120trains": 13404,
    "\u0120Ves": 36448,
    "\u0120rule": 3896,
    "\u0120urged": 11643,
    "\u0120Falls": 17930,
    "atsuki": 40063,
    "\u0120advoc": 5271,
    "aneously": 27683,
    "\u0120assuming": 13148,
    "\u0120replacements": 36205,
    "\u0120dissertation": 46793,
    "elligence": 3480,
    "\u0120event": 1785,
    "\u0120loops": 23607,
    "\u0120partnered": 29806,
    "\u0120alter": 8343,
    "\u0120cann": 6463,
    "\u0120Collector": 17573,
    "\u0120Prec": 28737,
    "kees": 16683,
    "\u0120thumbnail": 40901,
    "\u0120Ads": 47442,
    "\u0120dividend": 30494,
    "\u0120quotas": 38736,
    "\u0120reiterated": 27116,
    "SAM": 49302,
    "\u0120Vinyl": 45949,
    "\u0120Evil": 10461,
    "\u0120thing": 1517,
    "bre": 4679,
    "\u0120evacuation": 24663,
    "\u0120Setting": 25700,
    "\u0120banned": 9301,
    "Changes": 29238,
    "\u0120textbooks": 31814,
    "\u0120incon": 15861,
    "\u0120mammals": 23426,
    "\u0120intersections": 42085,
    "\u0120terror": 3246,
    "\u0120Fry": 25305,
    "\u0120ret": 1005,
    "\u0120CRC": 45623,
    "\u0120sorely": 50103,
    "\u0120Shaun": 35188,
    "\u0120Married": 44098,
    "\u0120mighty": 18680,
    "\u0120celebration": 14395,
    "\u0120Subjects": 43815,
    "constitutional": 18789,
    "\u0120();": 13979,
    "False": 25101,
    "\u0120Forever": 28285,
    "\u0120loses": 14754,
    "\u0120fertilizer": 37113,
    "reported": 26263,
    "\u0120biased": 21925,
    "\u0120Pap": 14185,
    "\u0120era": 6980,
    "\u0120Purchase": 27637,
    "\u0120Did": 7731,
    "\u0120Talking": 33445,
    "aucuses": 38271,
    "\u0120freshman": 18621,
    "\u0120authorization": 19601,
    "ATER": 23261,
    "form": 687,
    "\u0120Olive": 30012,
    "AMS": 40834,
    "\u0120flux": 28462,
    "\u0120Rican": 44459,
    "\u0120coworkers": 38945,
    "\u0120Trailer": 36923,
    "\u0120Spotlight": 49014,
    "wi": 37686,
    "Characters": 48393,
    "\u0120ugly": 13400,
    "\u0120distribut": 11309,
    "\u0120following": 1708,
    "\u0120shortages": 28791,
    "frac": 31944,
    "\u0120Crimes": 32655,
    "\u0120land": 1956,
    "lo": 5439,
    "\u0120technicians": 33519,
    "\u0120constitution": 11784,
    "\u0120cortisol": 41547,
    "\u0120princes": 42676,
    "\u0120acres": 16051,
    "selling": 16473,
    "Congratulations": 45048,
    "\u0120lovers": 20175,
    "sin": 31369,
    "\u0120compulsory": 31967,
    "gil": 37718,
    "\u0120fundraiser": 27639,
    "\u0120\u00c3\u00a9": 38251,
    "\u0120bin": 9874,
    "\u0120drinking": 7722,
    "\u012055": 5996,
    "cre": 7513,
    "\u0120Nova": 17711,
    "\u0120Stephen": 7970,
    "ocy": 13733,
    "\u0120Sheet": 21616,
    "Section": 16375,
    "der": 1082,
    "\u0120Klein": 22864,
    "\u0120Khal": 30126,
    "\u0120Nos": 32798,
    "\u0120policemen": 33777,
    "\u0120Cait": 34118,
    "\u0120Andromeda": 34542,
    "ocating": 27123,
    "\u0120vinegar": 26600,
    "\u0120cognition": 31119,
    "Jenn": 35994,
    "\u0120Tun": 13932,
    "\u0120Maya": 26041,
    "\u0120easing": 33672,
    "topic": 26652,
    "WI": 36326,
    "\u0120sockets": 37037,
    "\u0120STL": 37269,
    "ottage": 29480,
    "\u0120preparing": 10629,
    "journal": 24891,
    "\u0120dismissing": 37514,
    "Value": 11395,
    "\u0120Hope": 13408,
    "\u0120DET": 38267,
    "\u0120Podesta": 27375,
    "\u0120Split": 27758,
    "\u0120accurate": 7187,
    "\u0120indo": 23046,
    "\u00e3\u0124\u00bc": 30432,
    "Installation": 30838,
    "\u0120Asians": 30852,
    "\u0120IP": 6101,
    "\u0120pros": 10360,
    "\u0120Obama": 2486,
    "\u0120Go": 1514,
    "ocate": 13369,
    "\u0120avatar": 30919,
    "ifa": 19215,
    "\u0120swearing": 38372,
    "\u0120323": 38446,
    "efficients": 41945,
    "\u0120awarding": 46116,
    "\u0120Commando": 47150,
    "\u0120Elf": 19067,
    "\u0120proclaim": 23930,
    "\u0120Randolph": 39845,
    "\u0120diffuse": 42864,
    "stals": 41076,
    "idal": 11624,
    "eanor": 17663,
    "\u0120reinforced": 23738,
    "\u012025": 1679,
    "\u0120pumping": 26916,
    "\u0120notation": 33274,
    "addle": 37382,
    "\u0120Lep": 42957,
    "heddar": 44937,
    "\u0120Tomato": 47777,
    "\u0120Repeat": 30021,
    "\u0120reciprocal": 48135,
    "\u00e7\u012b\u012a": 48304,
    "\u0120riddled": 47655,
    "\u0120orc": 26393,
    "users": 18417,
    "enezuel": 12596,
    "fb": 21855,
    "\u0120soaring": 32376,
    "\u0120EVENTS": 22399,
    "\u0120stag": 35251,
    "Parameter": 36301,
    "\u0120floral": 38838,
    "\u0120Craft": 15745,
    "\u0120bosses": 17317,
    "\u0120Werewolf": 40261,
    "\u0120substitutes": 44234,
    "\u0120unchecked": 40032,
    "\u0120tightening": 36040,
    "\u0120generational": 48837,
    "rates": 9700,
    "\u0120permissible": 32005,
    "\u0120Kingdom": 7526,
    "\u0120testing": 4856,
    "\u0120Tina": 35903,
    "\u0120410": 32921,
    "fil": 10379,
    "\u0120Sexy": 49131,
    "\u0120dance": 9280,
    "\u0120327": 36203,
    "hemoth": 34394,
    "\u0120Association": 5396,
    "oother": 31724,
    "ho": 8873,
    "\u0120autobi": 33136,
    "\u0120Literary": 38412,
    "\u0120defended": 13768,
    "\u0120Wand": 22420,
    "Increase": 46890,
    "\u0120meters": 10700,
    "\u0120shout": 9191,
    "\u00e3\u0124\u00a2": 11839,
    "asonable": 17994,
    "Mos": 32668,
    "]:": 5974,
    "\u0120impoverished": 35014,
    "rollers": 36667,
    "\u0120primarily": 7525,
    "utt": 15318,
    "\u0120contribut": 4076,
    "cription": 6820,
    "\u0120Wins": 24423,
    "\u0120primaries": 25430,
    "ended": 1631,
    "................................": 8864,
    "\u0120inspire": 18330,
    "\u0120embarked": 36385,
    "Machine": 37573,
    "intestinal": 36387,
    "Throw": 39431,
    "Tim": 14967,
    "\u0120squee": 13170,
    "restrial": 23522,
    "Client": 11792,
    "504": 33580,
    "\u0120Issue": 18232,
    "\u0120polar": 13559,
    "hou": 15710,
    "teenth": 20283,
    "\u0120Hav": 23284,
    "Mother": 31398,
    "\u0120scholarships": 32055,
    "\u0120XD": 46537,
    "\u0120hereafter": 49912,
    "\u0120explosions": 23171,
    "\u0120oy": 35104,
    "\u0120stalking": 34683,
    "\u0120drawing": 8263,
    "igor": 36274,
    "\u0120Tend": 48664,
    "\u0120Demand": 34479,
    "\u0120Can": 1680,
    "\u00e3\u0125\u0125": 14777,
    "\u0120flush": 24773,
    "\u0120underground": 11447,
    "wikipedia": 31266,
    "Target": 21745,
    "ells": 19187,
    "antasy": 34921,
    "\u0120powder": 11913,
    "\u00e2\u0136\u0122\u00e2\u0136\u0122": 8418,
    "\u0120overl": 12893,
    "oton": 18970,
    "unit": 20850,
    "atics": 23372,
    "\u0120Des": 2935,
    "itude": 3984,
    "\u0120vulnerabilities": 23805,
    "\u0120assemble": 25432,
    "\u0120nightclub": 26617,
    "\u0120Atlanta": 9371,
    "ention": 1463,
    "100": 3064,
    "igen": 9324,
    "\u0120Woman": 14381,
    "\u0120Restaur": 22463,
    "\u00e3\u0124\u00a1": 25362,
    "\u0120VR": 6453,
    "\u0120Herm": 18113,
    "\u0120Restaurant": 26078,
    "tsy": 34293,
    "\u0120feedback": 7538,
    "\u0120Chero": 37156,
    "\u0120risking": 37234,
    "\u0120sci": 20681,
    "\u0120TRI": 37679,
    "\u0120LM": 37125,
    "HY": 42598,
    "ansson": 44038,
    "\u0120dorsal": 45254,
    "Brit": 17959,
    "\u0120Politico": 27096,
    "\u0120Auschwitz": 37992,
    "\u0120Rez": 47753,
    "\u0120grinding": 28436,
    "panic": 35843,
    "\u0120Nep": 15310,
    "ites": 2737,
    "nda": 45658,
    "\u0120ass": 840,
    "Kyle": 42516,
    "\u0120pumped": 29104,
    "elfth": 44659,
    "\u0120Destroyer": 30414,
    "\u0120serves": 9179,
    "\u0120Mari": 29423,
    "azine": 4994,
    "\u0120versatile": 21362,
    "\u0120Nose": 47880,
    "\u0120Virtual": 15595,
    "\u0120opt": 2172,
    "nc": 10782,
    "\u0120which": 543,
    "Drop": 26932,
    "uel": 2731,
    "\u0120Ye": 11609,
    "\u0120Ys": 43740,
    "618": 47448,
    "\u0120Catal": 16758,
    "interesting": 47914,
    "\u0120cliffs": 41724,
    "\u0120Fit": 25048,
    "etsk": 29515,
    "\u0120rein": 6865,
    "[[": 30109,
    "\u0120flare": 30239,
    "\u0120Helsinki": 47688,
    "\u00e2\u0122\u00a6)": 38418,
    "\u0120overcame": 49490,
    "\u0120Kr": 13685,
    "\u0120charts": 15907,
    "\u0120OR": 6375,
    "\u0120Tech": 9634,
    "usb": 43319,
    "\u0120trends": 11257,
    "\u0120comparative": 29270,
    "\u0120concert": 10010,
    "\u0120NPC": 15888,
    "\u0120ideals": 22247,
    "\u0120fisherman": 48750,
    "\u0120Senegal": 49657,
    "\u0120initiation": 30122,
    "\u0120concerts": 28565,
    "Know": 23812,
    "\u0120elim": 5687,
    "\u0120misled": 38796,
    "\u0120Chill": 38290,
    "\u0120transgender": 10637,
    "\u0120Madagascar": 46694,
    "\u0120ocean": 9151,
    "\u0120grouped": 32824,
    "Franc": 42885,
    "\u0120nod": 18666,
    "your": 14108,
    "\u0120\"\\": 37082,
    "\u0120Alliance": 10302,
    "aking": 868,
    "\u0120clumsy": 39120,
    "\u0120Wonders": 47497,
    "selected": 34213,
    "\u0120Irish": 8685,
    "1980": 23664,
    "763": 49641,
    "\u0120Nam": 17871,
    "\u0120FI": 18930,
    "\u0120gel": 20383,
    "\u0120songs": 7259,
    "\u0120diets": 18977,
    "Topic": 33221,
    "\u0120granite": 41013,
    "quila": 43652,
    "\u00e3\u0125\u012a": 13298,
    "\u0120hurdles": 34283,
    "\u0120metaphysical": 42031,
    "Alternatively": 44163,
    "\u0120Lists": 44968,
    "\u0120avg": 42781,
    "\u0120170": 16677,
    "enment": 23242,
    "ino": 2879,
    "pine": 23908,
    "dp": 26059,
    "\u0120goose": 37246,
    "\u00c2\u00af\u00c2\u00af\u00c2\u00af\u00c2\u00af\u00c2\u00af\u00c2\u00af\u00c2\u00af\u00c2\u00af": 15243,
    "\u0120crap": 18824,
    "AAA": 29697,
    "\u0120Moves": 38213,
    "\u0120ineffective": 23693,
    "\u0120Modest": 42810,
    "\u0120Tra": 4759,
    "\u0120sparse": 29877,
    "us": 385,
    "wage": 21482,
    "\u0120borrowed": 22546,
    "\u0120tha": 28110,
    "Builder": 32875,
    "phrase": 34675,
    "\u0120sans": 38078,
    "\u0120Ang": 2895,
    "silver": 40503,
    "ework": 6433,
    "\u0120elegant": 19992,
    "\u0120Lil": 16342,
    "\u0120lauded": 42086,
    "\u0120Brother": 8402,
    "\u0120Pep": 24226,
    "cle": 2375,
    "ociation": 41003,
    "\u0120Patterns": 47020,
    "\u0120Thrust": 49794,
    "ombat": 41628,
    "\u0120Ethiopia": 31592,
    "LOC": 29701,
    "\u0120eliminate": 11005,
    "\u0120minors": 21423,
    "ADE": 19266,
    "\u0120Marijuana": 29109,
    "perature": 21069,
    "\u0120Follow": 7281,
    "\u0120Fletcher": 31942,
    "\u0120neur": 11943,
    "ylon": 15158,
    "\u0120VER": 33310,
    "442": 39506,
    "rots": 24744,
    "\u0120Agents": 28295,
    "eez": 33105,
    "\u0120exped": 13604,
    "\u0120transmissions": 45649,
    "\u0120distinctive": 18778,
    "\u0120Views": 29978,
    "\u0120Mavericks": 36002,
    "228": 23815,
    "\u0120remembered": 12086,
    "\u00e2\u0122\u0135": 1906,
    "\u0120reload": 18126,
    "auth": 18439,
    "\u0120gates": 17435,
    "\u0120Lowe": 34241,
    "automatic": 37800,
    "\u0120Engineers": 27170,
    "at": 265,
    "\u0120behind": 2157,
    "\u0120Fah": 27361,
    "\u0120<!--": 37922,
    "monster": 39050,
    "\u0120goodbye": 24829,
    "\u0120EAR": 31834,
    "trust": 38087,
    "\u0120Halloween": 16032,
    "Work": 12468,
    "weed": 39054,
    "ortal": 16906,
    "\u0120tree": 5509,
    "uana": 5020,
    "Virtual": 37725,
    "we": 732,
    "\u0120408": 41247,
    "NPR": 38588,
    "\u0120cohesive": 42403,
    "\u0120142": 25181,
    "\u0120immigration": 6272,
    "occup": 19596,
    "\u0120company": 1664,
    "allah": 31840,
    "\u0120Appeal": 31876,
    "\u0120subordinates": 45506,
    "dependent": 21186,
    "\u0120Latest": 26603,
    "\u0120scouts": 29663,
    "atically": 4142,
    "\u0120aromatic": 48440,
    "OB": 9864,
    "\u0120Dry": 22408,
    "\u0120Bring": 24347,
    "\u0120Ket": 43092,
    "pelling": 35025,
    "\u0120icon": 7196,
    "\u0120intangible": 47734,
    "\u0120favour": 7075,
    "itarian": 8353,
    "\u0120Yale": 19681,
    "\u0120McD": 23394,
    "\u0120bob": 29202,
    "conom": 1519,
    "arette": 14758,
    "\u0120guilt": 14934,
    "\u0120\u00e2": 2343,
    "swer": 17845,
    "\u0120Sunni": 18592,
    "\u0120offence": 14148,
    "READ": 15675,
    "\u0120oxid": 18762,
    "\u0120reproduce": 22919,
    "\u0120Nicole": 25176,
    "\u0120electrons": 28722,
    "rifice": 31932,
    "\u0120nicer": 36597,
    "\u0120Caldwell": 37387,
    "\u0120fades": 41381,
    "\u0120>": 1875,
    "\u0120Mandarin": 41621,
    "\u0120Xer": 44264,
    "\u0120lewd": 45179,
    "However": 4864,
    "\u0103": 191,
    "\u0120heavily": 7272,
    "\u0120Theme": 26729,
    "AAAA": 17922,
    ")),": 36911,
    "\u0120Order": 8284,
    "sort": 30619,
    "\u0120nond": 30745,
    "\u0120(\u00e2\u012a\u0134": 35508,
    "\u0120kinetic": 37892,
    "\u0120338": 40736,
    "UC": 9598,
    "fx": 21373,
    "cy": 948,
    "440": 25644,
    "Mom": 29252,
    "\u0120aer": 9551,
    "\u0120mesh": 19609,
    "\u0120Thin": 40487,
    "\u0120sector": 6567,
    "\u0120bro": 1379,
    "\u0120Cosponsors": 41868,
    "\u0120Wired": 39721,
    "odor": 30530,
    "Pand": 47206,
    "\u0120kernels": 50207,
    "\u0120legality": 38209,
    "offer": 47895,
    "Mobile": 17066,
    "Hell": 28254,
    "Hunt": 47663,
    "\u0120Pog": 48974,
    "\u0120SAN": 37376,
    "YING": 45761,
    "ructose": 32275,
    "\u0120superiority": 26883,
    "\u0120sermon": 39362,
    "enter": 9255,
    "funding": 25032,
    "\u0120Nur": 49281,
    "\u0120Diver": 50137,
    "Trivia": 23854,
    "hab": 5976,
    "\u0120dom": 2401,
    "\u0120var": 1401,
    "taking": 26103,
    "\u0120management": 4542,
    "rons": 12212,
    "Tell": 24446,
    "1080": 24045,
    "\u0120Dungeons": 25461,
    "amily": 5993,
    "python": 29412,
    "oultry": 30056,
    "\u0120Benefits": 30582,
    "998": 34808,
    "\u00e6": 162,
    "\u0120Machina": 36781,
    "\u0120img": 33705,
    "ure": 495,
    "\u0120tongue": 11880,
    "\u0120grease": 35537,
    "\u0120DHS": 29987,
    "\u0120altern": 3983,
    "Ele": 28827,
    "IFIC": 30643,
    "\u0120duration": 9478,
    "\u0120styl": 22152,
    "Dom": 24510,
    "\u0120Grave": 36424,
    "ostics": 34558,
    "\u0120Look": 6803,
    "arin": 17714,
    "\u0120Ginny": 37877,
    "\u0120comb": 1974,
    "ahead": 38204,
    "\u0120spiked": 38927,
    "\u0120Miles": 20404,
    "Yellow": 39499,
    "\u0120reductions": 20691,
    "rice": 20970,
    "\u0120utmost": 27878,
    "ornings": 28863,
    "Mem": 13579,
    "\u0120scarf": 36953,
    "\u0120blockers": 43805,
    "\u0120price": 2756,
    "\u0120misconduct": 17063,
    "\u0120hut": 40812,
    "\u0120textile": 45293,
    "zzy": 31570,
    "\u0120Leth": 34201,
    "illed": 2967,
    "\u0120nexus": 45770,
    "atonin": 44248,
    "stones": 28750,
    "\u0120eccentric": 29303,
    "\u0120Spock": 37945,
    "wolves": 29664,
    "\u0120Jeremiah": 40192,
    "\u0120relocation": 35703,
    "\u0120Digest": 44255,
    "agascar": 44309,
    "rica": 30997,
    "Before": 8421,
    "\u0120Harm": 17925,
    "onomous": 38175,
    "\u0120Kodi": 44129,
    "FY": 43833,
    "mining": 45374,
    "\u0120burdens": 27127,
    "oad": 1170,
    "got": 23442,
    "\u0120disclosures": 29535,
    "\u0120vigorously": 31609,
    "guy": 22932,
    "\u0120chemotherapy": 34696,
    "\u0120prescribing": 39973,
    "\u0120ARE": 15986,
    "\u0120Labor": 7882,
    "availability": 47274,
    "\u0120List": 7343,
    "\u0120Rare": 14423,
    "\u0120sticky": 23408,
    "\u0120carbs": 33037,
    "\u0120Dubai": 24520,
    "\u0120Razer": 47890,
    "\u0120hamm": 25755,
    "\u0120Keystone": 29055,
    "\u0120theological": 30576,
    "\u0120consistent": 6414,
    "iltration": 36055,
    "\u0120filing": 12180,
    "\u0120scient": 3062,
    "\u0120Freddie": 31658,
    "\u0120TMZ": 46800,
    "\u0120Analog": 50088,
    "\u0120DIRECT": 42242,
    "Tex": 17005,
    "Sad": 26699,
    "attle": 1999,
    "alis": 27315,
    "\u0120biases": 29275,
    "\u0120Guidelines": 31072,
    "\u0120insulin": 14588,
    "\u0120chew": 34722,
    "\u0120Sweep": 42818,
    "Statistics": 48346,
    "\u0120STUD": 49348,
    "thanks": 27547,
    "\u0120organized": 8389,
    "\u0120SOC": 31430,
    "\u00e5\u012d": 47947,
    "\u0120degrees": 7370,
    "\u0120sources": 4237,
    "\u0120surprise": 5975,
    "BO": 8202,
    "berus": 39192,
    "\u0120landfill": 47712,
    "\u0120vel": 11555,
    "951": 50119,
    "\u0120expelled": 27307,
    "\u0120adept": 34080,
    "\u0120mi": 21504,
    "\u0120transmitter": 35099,
    "\u0120glanced": 27846,
    "wid": 28029,
    "\u0120democratic": 10518,
    "gressive": 19741,
    "icz": 28051,
    "\u0120receptor": 17408,
    "collect": 33327,
    "pling": 11347,
    "\u0120postponed": 33922,
    "\u0120NIC": 45593,
    "\u0120instance": 4554,
    "plin": 46982,
    "\u0120leaks": 17316,
    "\u0120roof": 9753,
    "\u0120Portuguese": 21813,
    "\u0120tiger": 26241,
    "\u0120Slam": 30382,
    "ellectual": 29706,
    "opal": 33067,
    "\u0120briefed": 32664,
    "\u0120prestigious": 23566,
    "\u0120shri": 35064,
    "\u0120touring": 25583,
    "llan": 47993,
    "\u0120pp": 9788,
    "\u0120incomes": 18696,
    "\u0120Ottoman": 34158,
    "atus": 7240,
    "\u0120Adds": 34333,
    "aled": 3021,
    "\u00e3\u0123\u00ae\u00e6": 27032,
    "\u0120Rudy": 37602,
    "\u0120\u00c2\u00a7\u00c2\u00a7": 47171,
    "evin": 6830,
    "\u0120Ventures": 41673,
    "Snake": 49795,
    "\u01201915": 32062,
    "\u0120Kart": 32872,
    "andal": 7642,
    "\u0120capture": 8006,
    "\u0120Chu": 25459,
    "\u0120treadmill": 49246,
    "\u0120upon": 2402,
    "\u01201913": 35145,
    "\u0120Mostly": 33495,
    "\u0120Williamson": 34974,
    "\u0120hurting": 21530,
    "\u0120adjusting": 22000,
    "ugar": 35652,
    "\u0120ay": 38762,
    "\u0120streamlined": 39673,
    "umbai": 21645,
    "\u0120Donetsk": 31819,
    "\u0120Dol": 25143,
    "\u0120luck": 8458,
    "foreign": 38823,
    "\u0120finally": 3443,
    "\u0120compens": 7144,
    "\u0120Reserved": 33876,
    "\u0120Ext": 5683,
    "btn": 46118,
    "1988": 26709,
    "akuya": 29863,
    "Override": 37961,
    "\u00e3\u0127\u012d": 35098,
    "\u0120immunity": 16989,
    "\u0120tomatoes": 23972,
    "\u0120cleric": 33824,
    "\u0120uncertain": 8627,
    "\u0120Somew": 32499,
    "156": 21599,
    "ation": 341,
    "\u0120Scandinavian": 42238,
    "\u0120mercury": 27394,
    "\u0120jurors": 28792,
    "\u0120Georgian": 45262,
    "\u0120outlook": 19360,
    "\u0120cylinder": 24911,
    "\u0120rank": 4279,
    "\u0120colonialism": 48359,
    "\u0120downgrade": 48514,
    "\u0120Since": 4619,
    "\u0120R\u00c3\u00a9": 47957,
    "expl": 20676,
    "\u0120Warp": 31382,
    "legate": 34637,
    "\u0120relegation": 47652,
    "\u0120surpassed": 30612,
    "\u0120economics": 12446,
    "\u0120sr": 19677,
    "\u0120miscar": 35976,
    "326": 39195,
    "inally": 3289,
    "\u0120entries": 12784,
    "\u00e3\u0124\u00a4\u00e3\u0125\u012a": 42396,
    "ileaks": 27983,
    "ulates": 15968,
    "UD": 8322,
    "\u0120Update": 10133,
    "\u0120Fairy": 17746,
    "\u0120seats": 8632,
    "\u0120Franz": 38323,
    "\u0120contributor": 18920,
    "\u0120reservation": 24048,
    "\u0120Han": 9530,
    "\u0120unob": 41511,
    "ISTORY": 42480,
    "\u0120surg": 19797,
    "\u0120inherent": 11519,
    "\u0120methyl": 27664,
    "\u0120bould": 47069,
    "\u0120immersed": 37970,
    "\u0120Brad": 8114,
    "Girl": 24151,
    "\u0120endorse": 11438,
    "\u0120defender": 13191,
    "\u0120strategist": 25651,
    "##": 2235,
    "values": 27160,
    "\u0120doorway": 32439,
    "\u0120stepping": 17413,
    "animate": 45685,
    "\u0120constructing": 30580,
    "\u0120Goldberg": 31225,
    "\u0120viewer": 19091,
    "tic": 13370,
    "\u0120cease": 13468,
    ".\u00ef\u00bf\u00bd": 40670,
    "\":-": 48219,
    "names": 14933,
    "\u0120fortune": 15807,
    "mark": 4102,
    "\u0120migrant": 23088,
    "\u0120contingent": 25477,
    "\u0120Nielsen": 31154,
    "\u0120farewell": 33458,
    "\u0120intentionally": 16464,
    "795": 41544,
    "\u00e8\u00aa": 45739,
    "ais": 15152,
    "\u0120Consent": 46869,
    "Football": 37316,
    "\u0120Hmm": 43352,
    "rina": 22267,
    "\u0120Falcons": 21026,
    "mediately": 23802,
    "\u0120Integrated": 35432,
    "\u0120starter": 14217,
    "Nevertheless": 29011,
    "\u0120Empress": 38470,
    "\u0120Scots": 33860,
    "\u0120Kills": 23478,
    "assembly": 41873,
    "\u0120motiv": 6556,
    "\u0120Diesel": 42718,
    "illation": 40903,
    "Pos": 21604,
    "itizen": 36958,
    "Acc": 17320,
    "\u0120ally": 12525,
    "\u0120handset": 40445,
    "\u0120enemy": 4472,
    "gee": 29622,
    "\u0120loos": 37222,
    "\u0120protagonist": 20281,
    "\u0120observable": 42550,
    "\u0120pre": 662,
    "\u0120Foley": 35535,
    "\u0143\u00b7": 48953,
    "avi": 15820,
    "Moving": 33622,
    "\u0120SIM": 23749,
    "\u0120Guru": 38749,
    "eming": 46564,
    "oth": 849,
    "\u0120reported": 2098,
    "\u0120radiation": 11881,
    "\u0120Cancer": 15523,
    "\u0120adjust": 4532,
    "\u0120Atk": 36379,
    "\u0120delve": 39130,
    "ryption": 13168,
    "\u0120NE": 10635,
    "oak": 15877,
    "\u0120Exile": 37273,
    "\u0120starship": 48744,
    "isdom": 9350,
    "itimate": 30233,
    "\u0120occup": 4977,
    "\u0120Mil": 4460,
    "\u0120Encounter": 40998,
    "\u0120unbel": 17491,
    "oried": 42058,
    "\u0120Contra": 46243,
    "\u0120155": 20708,
    "\u0120George": 4502,
    "sharing": 21987,
    "\u0120sailed": 33835,
    "ocrine": 38658,
    "\u0120traveler": 40168,
    "\u0120unm": 21303,
    "];": 11208,
    "\u0120Materials": 24310,
    "rovers": 31257,
    "\u0120incurred": 23436,
    "\u0120ind": 773,
    "channel": 17620,
    "\u0120paramed": 34581,
    "\u0120Goblin": 23391,
    "to": 1462,
    "\u0120devices": 4410,
    "\u0120nicknamed": 35786,
    "\u0120Scholarship": 38178,
    "\u0120resid": 15384,
    "\u0120Reconstruction": 45060,
    "\u0120erected": 28415,
    "anz": 35410,
    "\u0120selected": 6163,
    "\u0120pants": 12581,
    "\u0120Hence": 16227,
    "\u0120rubber": 14239,
    "Kit": 20827,
    "\u0120Phill": 11877,
    "Users": 14490,
    "\u0120Ellis": 21299,
    "987": 44183,
    "???": 28358,
    "VA": 11731,
    "\u0120Focus": 17061,
    "\u0120similarly": 12470,
    "\u0120nails": 23361,
    "orah": 40844,
    "pan": 6839,
    "\u0120resurrected": 41914,
    "\u0120Fund": 7557,
    "\u0120twenties": 44471,
    "\u0120diagnoses": 40567,
    "\u0120grief": 18522,
    "\u0120SpaceX": 26549,
    "\u0120Ez": 21034,
    "\u0120Expo": 32330,
    "Que": 15681,
    "\u0120aggregate": 19406,
    "\u0120cer": 26074,
    "\u01201970": 8069,
    "\u0120FB": 13186,
    "\u0120topping": 34366,
    "\u0120predis": 46276,
    ")\\": 19415,
    "\u0120traders": 21703,
    "\u0120reaff": 30384,
    "Bind": 36180,
    "Diamond": 47710,
    "Ro": 15450,
    "\u0120Rem": 3982,
    "\u0120appearance": 5585,
    "\u0120installation": 9988,
    "\u0120Continued": 22168,
    "=~=~": 33813,
    "\u0120doubted": 37104,
    "Empty": 40613,
    "\u0120warriors": 17119,
    "weet": 7277,
    "vironment": 2468,
    "\u0120excluding": 23494,
    "Desktop": 36881,
    "\u0120concedes": 49867,
    "\u0120hydro": 17173,
    "324": 33916,
    "flu": 35522,
    "\u0120thyroid": 30523,
    "\u0120obliter": 35722,
    "\u0120substantially": 13788,
    "\u0120SPACE": 37253,
    "ulnerable": 38828,
    "stab": 39029,
    "We": 1135,
    "\u0120softer": 32359,
    "\u0120Angelo": 48886,
    "ADD": 29266,
    "\u0120budding": 44194,
    "cho": 6679,
    "\u0120temperatures": 10101,
    "\u0120conserve": 45075,
    "\u0120inscribed": 45100,
    "\u0120Faster": 38996,
    "\u0120etched": 48755,
    "\u0120Share": 8734,
    "\u0120rails": 27587,
    "iatrics": 36549,
    "\u0120Heck": 31679,
    "ports": 3742,
    "oon": 2049,
    "ome": 462,
    "\u0120tested": 6789,
    "example": 20688,
    "Features": 23595,
    "\u0120UID": 25105,
    "\u0120Swansea": 36019,
    "Israel": 14040,
    "Kid": 48374,
    "\u0120Lud": 24177,
    "Aut": 16541,
    "anye": 23495,
    "\u0120XX": 21044,
    "\u0120converter": 38394,
    "\u0120enthusi": 11273,
    "\u0120masterpiece": 30669,
    "\u0120Mn": 36030,
    "oids": 10994,
    "\u0120Abraham": 16660,
    "resa": 14625,
    "\u0120fewer": 7380,
    "\u0120realised": 19169,
    "\u0120genuinely": 17170,
    "\u0120affili": 8349,
    "\u0120autopsy": 30241,
    "liga": 38910,
    "features": 40890,
    "\u0120contracts": 8592,
    "\u0120clerks": 44115,
    "\u0120Sho": 16509,
    "\u0120gay": 5650,
    "\u0120electronics": 17075,
    "\u0120\u00e2\u013e": 14519,
    "\u0120vit": 9090,
    "<|endoftext|>": 50256,
    "29": 1959,
    "remlin": 17244,
    "September": 17543,
    "\u0120Scarlett": 45046,
    "\u0120Li": 7455,
    "\u0120discrepancy": 34466,
    "\u0120traded": 14018,
    "\u0120strict": 7646,
    "ovable": 21985,
    "\u0120Nek": 37167,
    "\u0120Eas": 38647,
    "\u0120Sci": 10286,
    "\u0120condemned": 15006,
    "\u0120consultant": 17028,
    "\u0120nifty": 47803,
    "ounds": 3733,
    "\u0120Ring": 12569,
    "BSD": 21800,
    "\u0120returns": 5860,
    "TERN": 31800,
    "imoto": 43354,
    "asions": 39327,
    "\u0120sustainable": 13347,
    "\u0120facilitating": 36045,
    "\u0120Pump": 23220,
    "\u0120Chevy": 40688,
    "\u0120orig": 1796,
    "\u0120repet": 46152,
    "\u0120diner": 47519,
    "\u0120surrounded": 11191,
    "ession": 2521,
    "avoid": 27080,
    "$.": 35307,
    "ernandez": 18092,
    "302": 22709,
    "\u0120Survivor": 23740,
    "\u0120Measures": 45040,
    "\u0120Mack": 16640,
    "\u0120kissing": 25847,
    "\u0120DS": 17400,
    "\u00e3\u0125\u0125\u00e3\u0124\u00af": 35702,
    "Streamer": 28696,
    "LI": 31271,
    "Princ": 42904,
    "heard": 23636,
    "\u0120Sass": 48572,
    "ributed": 6169,
    "\u0120blot": 43182,
    "\u0120TT": 26653,
    "\u0120selectively": 39119,
    "\u0120restructuring": 32324,
    "\u0120shortage": 18772,
    "\u0120edge": 5743,
    "\u0120Boise": 38830,
    "\u0120reciproc": 36564,
    "Dialogue": 41099,
    "\u0120repaid": 48417,
    "\u0120epigen": 49651,
    "\u0120Syria": 4392,
    "\u0120bount": 49937,
    "\u0120Gob": 16909,
    "umn": 4182,
    "\u01201024": 28119,
    "omb": 2381,
    "offset": 28968,
    "Info": 12360,
    "Rain": 31443,
    "\u0120Maple": 21249,
    "\u0120footprints": 48012,
    "antic": 5109,
    "\u0120newcomers": 29661,
    "fort": 3319,
    "\u0120Ling": 25116,
    "ithub": 10060,
    "\u0120Jenn": 9777,
    "\u0120Katherine": 32719,
    "\u0120kittens": 45584,
    "\u0120highways": 27239,
    "Engine": 13798,
    "vere": 4119,
    "tarian": 14012,
    "\u0120Turner": 15406,
    "\u0120coastal": 17475,
    "\u0120anomal": 26921,
    "\u0120belie": 1250,
    "\u0120projection": 20128,
    "\u0120bat": 7365,
    "\u0120boasted": 32758,
    "\u0120Results": 15691,
    "Chain": 35491,
    "\u0120loving": 14442,
    "\u0120Petra": 37285,
    "Disable": 48893,
    "\u0120Kash": 20578,
    "\u0120stitches": 28096,
    "\u0120Glad": 28442,
    "\u0120paralyzed": 36175,
    "\u0120Trilogy": 37059,
    "ung": 2150,
    "\u0120Located": 40764,
    "\u0120wreckage": 31781,
    "^{": 36796,
    "\u0120tightened": 37257,
    "\u0120bigot": 25015,
    "gu": 5162,
    "\u0120crochet": 46149,
    "gency": 4949,
    "\u0120cat": 3797,
    "\u0120Produ": 21522,
    "\u0120recommending": 34639,
    "\u0120CAT": 38348,
    "OOOO": 23803,
    "time": 2435,
    "\u0120focusing": 10759,
    "\u0120lens": 10317,
    "\u0120sued": 16334,
    "\u0120indicator": 16916,
    "\u0120save": 3613,
    "()": 3419,
    "\u0120Marsh": 9786,
    "\u0120lenders": 28086,
    "priced": 30883,
    "\u0120expects": 13423,
    "\u0120cov": 39849,
    "779": 40393,
    "rawn": 5791,
    "\u0120proposing": 24634,
    "\u0120silhouette": 41834,
    "\u0120offseason": 16349,
    "Hub": 16066,
    "\u0120violation": 8747,
    "\u0120Boe": 12415,
    "\u0120communal": 26757,
    "stown": 27928,
    "jug": 31761,
    "\u0120fuse": 32738,
    "\u0120installment": 25168,
    "\u0120bending": 30808,
    "\u0120Civic": 31593,
    "\u0120rounding": 38185,
    "\u0120Enterprises": 41253,
    "\u0120Eddie": 19478,
    "1984": 28296,
    "\u0120Sandwich": 45000,
    "\u0120sausage": 31889,
    "\u0120pree": 47488,
    "\u0120subtle": 11800,
    "\u0120Runtime": 43160,
    "affle": 30697,
    "\u0120longevity": 28188,
    "\u0120Nazis": 19147,
    "\u0120reluctance": 33506,
    "\u0120sidelined": 39632,
    "\u0120fitt": 43500,
    "\u0120grasping": 44787,
    "\u0120dere": 49408,
    "\u0120clich\u00c3\u00a9": 43973,
    "\u0120businessmen": 34643,
    "STEM": 25361,
    "586": 29796,
    "1989": 25475,
    "\u0120broch": 41978,
    "\u0120shells": 19679,
    "shirt": 15600,
    "\u0120Ahmad": 24152,
    "\u0120Vigil": 39840,
    "\u0120Sacred": 17380,
    "\u0120NATO": 11332,
    "\u0120forms": 5107,
    "inder": 5540,
    "crypt": 29609,
    "\u0120narcissistic": 48502,
    "\u0120succeed": 6758,
    "\u0120antibody": 35757,
    "\u0120Absent": 49274,
    "opp": 10365,
    "\u0120CI": 14514,
    "\u0120broader": 11622,
    "Bride": 47148,
    "MU": 42422,
    "\u0120Jinn": 48653,
    "\u0120entitle": 44594,
    "avement": 44034,
    "\u0120Prepar": 38397,
    "car": 7718,
    "\u0120gazed": 50255,
    "\u0120Crab": 32379,
    "\u0120incons": 12764,
    "\u0120champion": 8783,
    "\u0120cigar": 24518,
    "sand": 38142,
    "ivably": 47994,
    "Action": 12502,
    "xd": 24954,
    "\u0120sharing": 7373,
    "\u0120offic": 1163,
    "Doug": 42297,
    "one": 505,
    "\u0120fetal": 27652,
    "\u0120tyre": 48216,
    "\u0120Xbox": 9445,
    "\u0120horns": 26771,
    "dt": 28664,
    "Heavy": 33210,
    "\u0120___": 46444,
    "\u0120Ros": 10018,
    "graduate": 17680,
    "398": 31952,
    "\u0120Chin": 22604,
    "cussion": 36262,
    "\u0120healthy": 5448,
    "\u0120Castle": 11312,
    "\u0120nomination": 11872,
    "\u0120conducts": 36721,
    "Ireland": 49752,
    "\u0120surrounding": 7346,
    "izen": 33977,
    "\u0120Tat": 29070,
    "\u0120plank": 39599,
    "\u0120Macy": 50048,
    "Module": 26796,
    "mission": 3411,
    "\u0120smash": 24273,
    "\u0120peers": 14495,
    "\u00d0\u00be": 15166,
    "\u0120Malt": 23729,
    "\u0120presets": 46613,
    "\u00c5\u012f": 13090,
    "RT": 14181,
    "\u0120vending": 47254,
    "\u0120Police": 4287,
    "intention": 40867,
    "\u0120INS": 29194,
    "Play": 11002,
    "63": 5066,
    "\u0120prescribed": 14798,
    "\u0120offshore": 18479,
    "\u0120disemb": 38110,
    "\u0120voc": 12776,
    "\u0120Parenthood": 18461,
    "\u0120starring": 20495,
    "\u0120sister": 6621,
    "Honest": 37411,
    "\u0120indeed": 5600,
    "indal": 44644,
    "\u0120Friedrich": 46099,
    "594": 46438,
    "\u0120Lower": 16048,
    "\u0120ETH": 35920,
    "brother": 37343,
    "\u0120wet": 9583,
    "\u0120orbiting": 40462,
    "\u0120Pulse": 25062,
    "tsky": 30394,
    "\u0120expel": 46466,
    "enn": 1697,
    "\u0120msg": 31456,
    "iership": 36689,
    "\u0120deleg": 8570,
    "games": 19966,
    "\u0120warfare": 15611,
    "ude": 2507,
    "\u0120Beyon": 37361,
    "xus": 40832,
    "reader": 46862,
    "\u0120Casey": 21097,
    "\u0120cellphone": 26346,
    ".''.": 50113,
    "\u0120labou": 45161,
    "\u0120water": 1660,
    "aundering": 23496,
    "\u0120Hy": 6707,
    "\u0120robots": 14193,
    "\u0120Extreme": 18111,
    "\u0120Throughout": 24581,
    "\u0120Georg": 6850,
    "\u0120benefiting": 39125,
    "vg": 45119,
    "\u0120Ever": 10776,
    "\u0120Sheriff": 12874,
    "\u0120Clint": 21549,
    "437": 43284,
    "Volume": 31715,
    "\u0120experiences": 6461,
    "\u0120SH": 6006,
    "ymes": 22009,
    "\u0120Mono": 34879,
    "\u0120Brus": 15507,
    "\u0120burning": 9482,
    "\u0120Som": 9995,
    "\u0120Maritime": 45411,
    "\u0120Maw": 46598,
    "\u0120Pepper": 24346,
    "\u0120portable": 17726,
    "YES": 43335,
    "ective": 13967,
    "ermanent": 30312,
    "azaki": 32276,
    "\u0120Pharmac": 37908,
    "\u0120financed": 29768,
    "\u0120Political": 14611,
    "\u0120{:": 46110,
    "\u0120wielded": 42459,
    "\u0120traditional": 4569,
    "\u0120insofar": 44061,
    "\u0120Sh": 911,
    "\u0120directed": 7924,
    "\u0120Libraries": 46267,
    "\u0120desc": 1715,
    "\u0120Christensen": 49195,
    "\u0120arrivals": 34462,
    "Entity": 32398,
    "cpp": 20322,
    "\u0120Sharp": 22835,
    "\u0120headsets": 44257,
    "\u0120checkpoints": 36628,
    "\u0120Telecom": 44021,
    "\u0120dispute": 11047,
    "Quote": 25178,
    "ippers": 16415,
    "\u0120compromised": 19066,
    "uctions": 20847,
    "eca": 31047,
    "\u0120professors": 20339,
    "\u0120EF": 33685,
    "\u0120unw": 7379,
    "[": 58,
    "itely": 3973,
    "\u0120Barclays": 37985,
    "\u0120cut": 2005,
    "\u0120manager": 4706,
    "\u0120IPS": 37632,
    "htar": 38672,
    "\u0120Goff": 44572,
    "ub": 549,
    "arer": 11258,
    "\u0120Vault": 23450,
    "\u0120mage": 29241,
    "\u0120137": 21643,
    "\u0120Ot": 19740,
    "\u0120SIG": 33993,
    "urses": 46998,
    "like": 2339,
    "\u0120improvised": 36146,
    "\u0120gotten": 7891,
    "\u0120Cycle": 26993,
    "-.": 34507,
    "iggins": 23567,
    "irin": 47388,
    "\u0120Kens": 29018,
    "\u0120cass": 30606,
    "\u0120extract": 7925,
    "\u0120Holmes": 17628,
    "iler": 5329,
    "\u0120Maker": 21521,
    "\u0120alias": 16144,
    "\u0120contention": 22627,
    "\u0120gain": 4461,
    "\u0120last": 938,
    "\u0120accompl": 6424,
    "\u0120Regulations": 26108,
    "\u0120supers": 22754,
    "\u0120invited": 9392,
    "see": 3826,
    "\u0120recruit": 10960,
    "itled": 7803,
    "\u0120beings": 9791,
    "\u012048": 4764,
    "\u0120interaction": 10375,
    "\u0120hill": 12788,
    "uther": 12866,
    "\u0120phenomen": 7581,
    "City": 14941,
    "\u0120affiliation": 26218,
    "enton": 26673,
    "\u0120remake": 28763,
    "\u0120parks": 14860,
    "\u0120Hybrid": 29481,
    "\u0120responds": 20067,
    "\u0120nat": 34664,
    "\u0120amenities": 35468,
    "\u0120control": 1630,
    "\u0120WTC": 38821,
    "\u00e5\u012e": 44293,
    "\u0120br": 865,
    "\u0120Sovereign": 44964,
    "Kate": 45087,
    "Iowa": 45186,
    "\u0120Holt": 28330,
    "\u01201909": 41507,
    "\u0120Drill": 46350,
    "\u0120immobil": 47800,
    "moderate": 47189,
    "\u0120loyal": 9112,
    "\u0120cumbersome": 44491,
    "\u0120eject": 22189,
    "Best": 13014,
    "\u0120Monday": 3321,
    "\u0120upset": 9247,
    "cience": 4234,
    "\u0120Ott": 9767,
    "\u0120Dominion": 28098,
    "\u0120Sans": 20845,
    "udic": 28673,
    "\u0120vener": 31299,
    "\u012049": 5125,
    "\u0120replaces": 24020,
    "\u0120GOP": 6796,
    "oof": 37711,
    "\u0120identifiers": 42814,
    "\u0120Coup": 43156,
    "\u0120filmmaker": 26479,
    "whel": 30613,
    "sighted": 44068,
    "lift": 26282,
    "\u0120dying": 9950,
    "\u0120intellig": 10878,
    "Chuck": 44324,
    "\u0120Maduro": 33007,
    "\u0120sten": 45219,
    "\u0120philosophies": 45500,
    "\u0120Copenhagen": 31104,
    "\u0120baker": 46412,
    "\u0120dives": 46638,
    "ilded": 46158,
    "\u0120fictitious": 46718,
    "ANA": 31574,
    "named": 13190,
    "\u0120environment": 2858,
    "Pro": 2964,
    "\u0120consequences": 6948,
    "isi": 23267,
    "still": 24219,
    "\u0120Heavenly": 29035,
    "ATING": 33881,
    "laugh": 44944,
    "\u0120Import": 17267,
    "\u0120LLC": 11419,
    "\u0120citations": 33499,
    "\u0120Hou": 33790,
    "\u0120Connie": 48506,
    "\u0120studio": 8034,
    "\u0120disagreed": 27884,
    "\u0120Measure": 24291,
    "\u01202100": 38123,
    "nav": 28341,
    "\u0120folklore": 46623,
    "\u0120easiest": 16638,
    "\u0120reduces": 12850,
    "\u0120Int": 2558,
    "tax": 19290,
    "article": 20205,
    "\u0120caves": 30923,
    "\u0120Rooms": 42043,
    "\u0120pixel": 17465,
    "WM": 22117,
    "\u0120brill": 9547,
    "\u0120magical": 10883,
    "\u0120procure": 23364,
    "\u0120Farms": 39045,
    "ixt": 6346,
    "\u0120Hank": 24386,
    "\u0120Canon": 19507,
    "\u0120settlers": 25371,
    "\u0120idle": 21696,
    "\u0120Brand": 13512,
    "\u0120Stark": 20956,
    "\u0120tackling": 26348,
    "\u0120Calls": 27592,
    "\u0120trough": 45047,
    "ordan": 7350,
    "\u0120statistical": 13905,
    "tesy": 27090,
    "paced": 32416,
    "\u0120Jac": 8445,
    "GROUND": 46025,
    "ild": 688,
    "athed": 35932,
    "\u0120colder": 38427,
    "\u0120rejuven": 46834,
    "\u0120Oklahoma": 10433,
    "\u0120separates": 31555,
    "bh": 34369,
    "\u0120\u00e3\u0124": 17433,
    "\u0120Stre": 9737,
    "\u0120rav": 24343,
    "\u0120reacts": 30174,
    "uddin": 44008,
    "\u0120gre": 10536,
    "\u0120goalt": 30896,
    "576": 37452,
    "Rose": 31087,
    "\u0120Modes": 42082,
    "\u0120Frieza": 48080,
    "etime": 8079,
    "\u0120--------------------": 41436,
    "\u0120consulting": 18158,
    "\u01201000": 8576,
    "\u0120symbolic": 18975,
    "\u0120education": 3707,
    "\u0120Honestly": 34173,
    "omsky": 37093,
    "\u0120Edit": 5312,
    "alogue": 30326,
    "\u0120fet": 11351,
    "\u0120cinnamon": 29181,
    "\u0120Unknown": 16185,
    "\u0120Dow": 21842,
    "\u0120panicked": 38225,
    "gettable": 42182,
    "\u0120baseless": 49241,
    "\u0120hyp": 5328,
    "\u0120Eternal": 21475,
    "\u0120Banner": 27414,
    "\u0120INTER": 23255,
    "\u0120\u00e9": 16268,
    "\u0120versatility": 31689,
    "\u0120Gordon": 11646,
    "FIG": 16254,
    "Start": 10434,
    "\u0120Tempest": 34367,
    "\u0120equate": 45423,
    "\u0120uploaded": 19144,
    "Dig": 19511,
    "market": 10728,
    "ault": 1721,
    "ussed": 29569,
    "\u0120attain": 18188,
    "\u0120vigilance": 49202,
    "\u0120units": 4991,
    "\u0120219": 30453,
    "xf": 26152,
    "\u0120cooler": 19346,
    "\u0120Tet": 27351,
    "practice": 39541,
    "\u0120Rodney": 34895,
    "\u0120deepening": 46539,
    "card": 9517,
    "\u0120red": 2266,
    "asury": 11579,
    "\u0120deadlines": 36773,
    "\u0120Strawberry": 42611,
    "\u0120Capture": 31793,
    "\u0120Algeria": 36498,
    "\u0120cumbers": 44392,
    "\u0120Mob": 16540,
    "\u0120veget": 7494,
    "\u0120atheists": 28473,
    "\u0120nuisance": 36212,
    "uala": 41944,
    "\u0120bast": 19918,
    "\u0120exploitation": 17238,
    "branded": 35559,
    "Camp": 21111,
    "\u0120fuck": 5089,
    "\u0120Dism": 44955,
    "\u0120Across": 27497,
    "gmail": 14816,
    "\u0120projectiles": 33281,
    "\u0120medi": 16957,
    "\u0120Rd": 20769,
    "\u0120Stall": 35719,
    "\u0120cocoa": 35845,
    "\u0120PHP": 19599,
    "\u0120literary": 16716,
    "\u0120domestic": 5928,
    "\u0120simulation": 18640,
    "\u0120spelling": 24993,
    "\u00e3\u0124\u012e": 39258,
    "olves": 9010,
    "\u0120skilled": 14297,
    "\u0120stealth": 19159,
    "atham": 37520,
    "\u0120homeowner": 40130,
    "Issue": 45147,
    "\u0120Himal": 42438,
    "\u0120hero": 4293,
    "\u0120motherboard": 32768,
    "==": 855,
    "\u0120hungry": 14720,
    "\u0120timid": 44295,
    "\u0120antitrust": 42766,
    "Spread": 44458,
    "\u0120shocked": 11472,
    "\u0120\u00e2\u0122\u0136": 851,
    "\u0120sightings": 36242,
    "\u0120unaccount": 48422,
    "Japanese": 25324,
    "apeshifter": 29554,
    "Brandon": 45467,
    "\u0120Ya": 26421,
    "\u0120DLC": 18068,
    "\u0120Wealth": 35151,
    "\u0120Ng": 34786,
    "ra": 430,
    "\u0120orche": 17771,
    "\u0120plaintiffs": 21880,
    "\u0120machinery": 20230,
    "\u0120Flash": 9973,
    "\u0120Publishing": 23499,
    "ursions": 42394,
    "\u0120jumps": 18045,
    "reports": 48922,
    "backed": 17078,
    "\u0120inserting": 19319,
    "amy": 14814,
    "\u0120Rift": 21222,
    "\u0120throughout": 3690,
    "\u0120Charm": 30225,
    "\u0120mech": 36571,
    "raid": 7086,
    "uben": 44636,
    "\u0120unregulated": 47289,
    "oy": 726,
    "\u0120brush": 14093,
    "\u00e5\u0133": 37772,
    "\u0120neurot": 42181,
    "\u0120accordance": 10213,
    "\u0120Governments": 40343,
    "Hyper": 38197,
    "communications": 20860,
    "\u0120address": 2209,
    "Brazil": 39190,
    "uttered": 46322,
    "orp": 16300,
    "\u0120Tanz": 34769,
    "\u0120ECB": 36285,
    "\u0120beautifully": 21104,
    "techn": 23873,
    "ighter": 4799,
    "\u0120acknowledge": 12127,
    "ite": 578,
    "producing": 36866,
    "Perhaps": 13710,
    "\u0120infield": 43262,
    "\u0120engage": 8209,
    "\u0120\u00e7\u00a5\u0140": 47432,
    "clusions": 11539,
    "\u0120BET": 38651,
    "\u0120Mt": 18632,
    "\u0120monet": 32153,
    "auntlet": 32633,
    "NO": 15285,
    "\u0120Kenya": 21506,
    "\u0120agre": 2477,
    "asks": 6791,
    "\u0120publishes": 34134,
    "\u0120when": 618,
    "inances": 34999,
    "325": 26582,
    "05": 2713,
    "actually": 37739,
    "RELATED": 20112,
    "\u0120Dollars": 45792,
    "\u0120poaching": 49879,
    "\u0120Ryzen": 45042,
    "\u0120ya": 21349,
    "Msg": 50108,
    "immer": 10957,
    "\u0120Amanda": 23040,
    "iner": 7274,
    "\u0120candidate": 4540,
    "\u0120reacted": 22798,
    "\u0120shortcut": 29401,
    "\u0120defeated": 9772,
    "\u0120Depression": 22483,
    "\u0120rocky": 26898,
    "\u0120deteriorating": 43229,
    "essen": 44483,
    "\u0120Gutierrez": 48283,
    "ener": 877,
    "\u0120312": 34465,
    "\u0120Hall": 4789,
    "Same": 30556,
    "ham": 2763,
    "\u0120Gary": 10936,
    "Hit": 17889,
    "\u0120Outlook": 30096,
    "\u0120Murdoch": 30370,
    "\u0120wives": 17743,
    "\u0120unstable": 21354,
    "\u0120entirety": 21818,
    "akis": 27321,
    "\u0120lay": 3830,
    "\u0120filibuster": 38940,
    "\u0120aber": 42499,
    "\u0120unmarried": 39183,
    "\u0120resumed": 28291,
    "\u00e5\u0124": 43636,
    "KA": 25123,
    "Ring": 39687,
    "iants": 17883,
    "kt": 21841,
    "\u0120unsub": 32793,
    "clinton": 37821,
    "\u0120intens": 17509,
    "\u0120Camel": 43281,
    "\u0120crates": 40382,
    "umper": 15829,
    "\u0120presumed": 25751,
    "\u0120238": 32544,
    "\u0120Gard": 12790,
    "\u0120friendships": 34596,
    "\u0120diligence": 34136,
    "regular": 16338,
    "\u0120Rel": 4718,
    "\u0120prepar": 9198,
    "\u0120Skill": 16023,
    "\u0120API": 7824,
    "amera": 18144,
    "ass": 562,
    "\u0120nephew": 26301,
    "\u0120Yet": 6430,
    "aeper": 28235,
    "\u0120neighbouring": 29272,
    "Justice": 28447,
    "\u0120reflection": 14580,
    "\u0120Mot": 6543,
    "\u0120IRC": 30039,
    "\u00c3\u00b1a": 30644,
    "\u0120defaults": 26235,
    "\u0120NCAA": 15244,
    "\u0120Gospel": 23244,
    "fuck": 31699,
    "\u0120roundup": 48390,
    "UTERS": 14974,
    "ult": 586,
    "\u0120Protector": 37138,
    "\u0120hugging": 46292,
    "\u0120annot": 24708,
    "\u0120Flyers": 30652,
    "\u0120Delhi": 12517,
    "\u0120drowned": 30859,
    "establish": 40037,
    "\u0120transactions": 8945,
    "\u0120barbaric": 48176,
    "\u0120slid": 27803,
    "healthy": 22796,
    "\u0120Failed": 22738,
    "\u0120currencies": 19247,
    "\u0120militia": 21085,
    "inatory": 23132,
    "\u0120adject": 31129,
    "\u0120elevation": 22910,
    "\u00e9": 165,
    "\u0120Hunters": 31196,
    "\u0120wrench": 34561,
    "\u0120migrants": 12783,
    "\u0120implementations": 25504,
    "\u0120Moines": 36576,
    "\u0120atro": 38324,
    "bler": 43400,
    "\u0120Jessie": 43425,
    "\u0120hearing": 4854,
    "Pretty": 35700,
    "\u0120dog": 3290,
    "\u0120Logo": 42411,
    "\u0120ceasefire": 29717,
    "\u0120inform": 4175,
    "\u0120hotels": 18505,
    "\u012077": 8541,
    "Ham": 21281,
    "arry": 6532,
    "NING": 15871,
    "tmp": 22065,
    "renched": 23437,
    "orc": 24449,
    "\u0120AES": 34329,
    "Ah": 10910,
    "\u0120mysterious": 11428,
    "Solution": 46344,
    "fs": 9501,
    "POR": 44680,
    "\u0120Answers": 42612,
    "\u0120crippling": 37953,
    "\u0120quit": 11238,
    "\u0120slap": 23905,
    "\u0120Hand": 7157,
    "\u0120RFC": 30978,
    "\u0120prospective": 17530,
    "\u0120cancelled": 16769,
    "\u0120assigns": 46974,
    "\u012d": 233,
    "\u0120Pascal": 35163,
    "\u0120testim": 8844,
    "ori": 10145,
    "\u0120Wales": 11769,
    "\u0120Liquid": 21020,
    "\u0120previously": 4271,
    "\u0120disgu": 17360,
    "ariat": 21621,
    "\u0120descending": 31491,
    "comed": 15128,
    "\u0120narrower": 40369,
    "\u0120aluminium": 40412,
    "\u0120Sep": 8621,
    "\u0120serial": 11389,
    "uria": 34484,
    "\u0120Rounds": 49049,
    "Arizona": 40732,
    "athy": 10036,
    "\u0120unwitting": 38420,
    "\u012099": 7388,
    "\u0120Junior": 20000,
    "\u0120ridiculously": 32871,
    "haven": 39487,
    "\u0120Fabric": 37759,
    "\u0120cowardly": 47687,
    "\u0120Pon": 50210,
    "\u0120imag": 3590,
    "Mer": 13102,
    "partisan": 28226,
    "big": 14261,
    "\u0120plagiar": 42054,
    "\u0120congressional": 11702,
    "\u0120disappro": 22293,
    "\u0120distorted": 26987,
    "\u0120anarchism": 41661,
    "C": 34,
    "\u0120doesn": 1595,
    "Kim": 26374,
    "\u0120labyrinth": 41553,
    "attack": 20358,
    "\u0120expr": 44052,
    "\u0120Det": 4614,
    "\u0120violence": 3685,
    "\u0120NO": 8005,
    "istent": 7609,
    "\u0120focuses": 13692,
    "\u0120holder": 15762,
    "\u0120neoliberal": 31972,
    "\u0120agony": 35358,
    "\u0120stool": 38753,
    "AF": 8579,
    "letcher": 29257,
    "\u0120alteration": 35635,
    "\u0120328": 39093,
    "\u012043": 5946,
    "Ware": 38824,
    "\u0120Kent": 8758,
    "low": 9319,
    "\u0120OVER": 28729,
    "\u0120bicycl": 48094,
    "vich": 49547,
    "ether": 6750,
    "pass": 6603,
    "plom": 7302,
    "\u0120fug": 31497,
    "\u0120suppl": 6019,
    "\u0120jo": 2525,
    "side": 1589,
    "\u0120fertil": 19078,
    "Med": 9921,
    "\u0120speculate": 26256,
    "Delete": 38727,
    "\u0120Parameters": 40117,
    "\u0120biotech": 47693,
    "\u0120starting": 3599,
    "\u0120degener": 25419,
    "braska": 17088,
    "\u0120nurt": 23868,
    "vik": 28930,
    "hub": 40140,
    "\u0120mechanisms": 11701,
    "Look": 8567,
    "\u0120Hik": 39790,
    "productive": 27781,
    "ACTED": 38542,
    "\u0120waiver": 23804,
    "\u0120attack": 1368,
    "\u0120Celestial": 37231,
    "\u0120Youth": 17582,
    "bo": 2127,
    "lat": 15460,
    "\u0120tropes": 43275,
    "\u0120manga": 15911,
    "524": 48057,
    "\u0120bankers": 25091,
    "\u0120financially": 18786,
    "\u0120specially": 20905,
    "\u0120beverages": 24173,
    "rete": 8374,
    "\u0120groundwater": 34573,
    "\u01202002": 6244,
    "\u0120Config": 17056,
    "\u0120clashes": 21022,
    "\u0120Mu": 8252,
    "\u0120dragged": 17901,
    "ravis": 16956,
    "\u0120url": 19016,
    "\u0120wool": 25749,
    "Therefore": 26583,
    "Fit": 31805,
    "\u0120salts": 37056,
    "learning": 40684,
    "ins": 1040,
    "\u0120Brend": 19252,
    "\u0120fleeting": 42738,
    "\u0120inaccur": 47283,
    "\u0120movies": 6918,
    "\u0120BC": 11843,
    "\u0120forecast": 11092,
    "\u0120Random": 14534,
    "steam": 21465,
    "\u0120Resistance": 17363,
    "\u0120expiration": 28385,
    "\u0120catalogue": 34614,
    "\u0120Cohn": 45005,
    "\u0120Pwr": 49267,
    "\u0120guns": 6541,
    "\u0120yourself": 3511,
    "Add": 4550,
    "\u0120fancy": 14996,
    "\u0120Basically": 20759,
    "\u0120atoms": 23235,
    "\u0120Bened": 25660,
    "\u0120upstairs": 26148,
    "261": 30057,
    "open": 9654,
    "\u0120racists": 40681,
    "\u0120Walls": 40699,
    "Allow": 35265,
    "\u0120landscape": 10747,
    "\u0120Who": 5338,
    "\u0120Horizon": 22776,
    "\u0120Milan": 21574,
    "\u0120banished": 43926,
    "anc": 1192,
    "\u0120Didn": 31279,
    "\u0120idi": 46205,
    "\u0120Pittsburgh": 12767,
    "\u0120endangered": 22700,
    "\u0120tore": 26197,
    "atellite": 26493,
    "\u0120restraining": 35078,
    "enic": 35866,
    "\u0120chimpan": 36064,
    "\u0120Nicola": 40396,
    "\u0120Sum": 5060,
    "\u0120seized": 12000,
    "\u0120Marriage": 24509,
    "\u0120Fiber": 29933,
    "\u0120LinkedIn": 27133,
    "\u0120obligation": 12990,
    "\u0120header": 13639,
    "frame": 14535,
    "\u0120boats": 16659,
    "opened": 26350,
    "PLIED": 49094,
    "\u0120exact": 2748,
    "ancouver": 10264,
    "\u0120positions": 6116,
    "\u0120foreigner": 44897,
    "\u0120investig": 2009,
    "\u0120Sau": 23167,
    "\u0120difficulties": 13156,
    "\u0120INC": 19387,
    "\u0120brewery": 22120,
    "checking": 41004,
    "rooms": 9649,
    "angs": 27725,
    "\u0120239": 32817,
    "liberal": 35739,
    "1972": 41023,
    "\u0120sunscreen": 44221,
    "umbn": 10269,
    "\u0120Torah": 33366,
    "atar": 9459,
    "\u0120dropped": 5710,
    "\u0120molecules": 17745,
    "oqu": 22696,
    "\u0120prosecuting": 38242,
    "\u0120traffickers": 40421,
    "\u0120gymn": 38581,
    "\u0120discreet": 38724,
    "\u0120imitate": 44638,
    "\u0120certainty": 18979,
    "\u0120introduction": 9793,
    "\u0120Protein": 31702,
    "Marsh": 41984,
    "}}}": 42535,
    "\u0120scarce": 18549,
    "\u0120foot": 2366,
    "\u0120headset": 23492,
    "\u0120vec": 43030,
    "\u0120marines": 45333,
    "\u0120proxies": 41775,
    "\u0120Spo": 49331,
    "oves": 5241,
    "\u0120warn": 9828,
    "\u0120vine": 17793,
    "ye": 5948,
    "\u0120sett": 2970,
    "\u0120effects": 3048,
    "chat": 17006,
    "610": 39132,
    "root": 15763,
    "\u0133\u00e5\u00a3\u00ab": 39374,
    "find": 19796,
    "\u0120homework": 26131,
    "respect": 15008,
    "\u0120wavelength": 28400,
    "ipel": 40634,
    "\u0120resurrect": 27603,
    "ctrl": 44755,
    "Oracle": 48625,
    "\u0120exhibitions": 48130,
    "priority": 49336,
    "dden": 4742,
    "\u0120misunderstanding": 29789,
    "\u0120Communist": 14884,
    "obic": 20803,
    "\u0120Passage": 46169,
    "WHERE": 47357,
    "\u01202500": 33507,
    "og": 519,
    "utral": 6815,
    "\u00e0\u00a4": 11976,
    "\u0120arise": 15058,
    "\u0120McN": 22586,
    "\u0120populism": 47584,
    "\u0120eliminates": 32311,
    "\u0120certific": 8700,
    "\u0120Islamist": 17780,
    "\u0120Cave": 18603,
    "\u0120lawn": 21133,
    "\u0120argues": 11673,
    "Democrats": 29969,
    "\u0120nailed": 37708,
    "igmatic": 38860,
    "JB": 47858,
    "\u0120dracon": 27733,
    "air": 958,
    "699": 47325,
    "\u0120Oversight": 35968,
    "\u0120213": 28658,
    "\u0120timetable": 40021,
    "\u0120Swords": 25199,
    "\u0120breathed": 39545,
    "\u0120violent": 6590,
    "\u0120Atkins": 47545,
    "agic": 9083,
    "\u012004": 8702,
    "atal": 10254,
    "\u0120Seahawks": 16732,
    "uid": 27112,
    "',": 3256,
    "pha": 7566,
    "\u0120Leo": 19632,
    "\u012a\u0134": 7134,
    "\u0120kills": 12847,
    "\u0120actress": 14549,
    "ylan": 18554,
    "\u0120Remastered": 22773,
    "\u0120differentiate": 28754,
    "\u0120grounding": 48459,
    "\u0120exclaim": 48775,
    "\u0120Tight": 44643,
    "\u0120depri": 15659,
    "\u0120Arcade": 23190,
    "hemer": 39557,
    "Prof": 15404,
    "\u0120Hobby": 44327,
    "\u0120Procedure": 34997,
    "\u00e9\u00be\u012f": 11885,
    "\u0120surpass": 17341,
    "\u0120Legacy": 14843,
    "ictions": 9278,
    "male": 22606,
    "uld": 32926,
    "Jamie": 48337,
    "ong": 506,
    "yer": 9860,
    "ahan": 19210,
    "\u0120Philos": 18880,
    "\u0120Marcos": 37033,
    "\u0120Sector": 25892,
    "\u0120manpower": 44803,
    "\u0120THEIR": 47278,
    "rating": 8821,
    "\u0120condolences": 38671,
    "oj": 13210,
    "\u0120indist": 37665,
    "\u0120dB": 30221,
    "\u0120inappropriate": 15679,
    "\u0120graduates": 19087,
    "\u0120outfielder": 46422,
    "\u0120worm": 23849,
    "\u0120Abe": 22257,
    "\u0120Preservation": 47805,
    "\u0120Holl": 11806,
    "\u0120golf": 13126,
    "\u0120Explos": 33022,
    "ersen": 46516,
    "riage": 4087,
    "\u0120safely": 11512,
    "\u0120intervened": 35018,
    "\u0120Simpl": 45157,
    "\u0120disgust": 16234,
    "\u0120baptized": 40357,
    "Tonight": 43783,
    "\u0120agenda": 8666,
    "\u0120Romeo": 43989,
    "\u0120year": 614,
    "\u0120condemnation": 28215,
    "\u0120aside": 7263,
    "initions": 50101,
    "Activity": 16516,
    "right": 3506,
    "December": 20588,
    "\u0120foo": 22944,
    "cn": 31522,
    "\u0120phon": 32896,
    "\u0120vile": 34942,
    "\u0120traverse": 38138,
    "\u0120Blink": 41732,
    "\u0120spate": 48831,
    "\u0120Conservation": 23702,
    "\u0120totem": 49930,
    "imer": 22723,
    "\u0120m": 285,
    "\u0120Der": 9626,
    "inters": 20193,
    "\u00e7\u013c\u0126": 21410,
    "\u0120REM": 22657,
    "\u0120RAF": 28168,
    "INFO": 10778,
    "\u0120Civil": 7511,
    "\u0120intellectuals": 32322,
    "\u0120Hover": 38452,
    "\u0120intolerance": 31545,
    "\u0120Typh": 27282,
    "\u0120promot": 4256,
    "\u0120keeping": 5291,
    "250": 9031,
    "istrates": 37909,
    "\u0120Gaddafi": 40320,
    "\u0120illustrating": 44000,
    "ned": 2817,
    "addafi": 32113,
    "\u0120logged": 18832,
    "\u0120tac": 26142,
    "\u0120titled": 11946,
    "\u0120Sex": 14419,
    "\u0120<@": 32406,
    "\u0120replacement": 9014,
    "\u0120liberated": 35112,
    "\u0120custom": 2183,
    "Hill": 36369,
    "bes": 12636,
    "\u0120outset": 30761,
    "\u0120unconscious": 14917,
    "alty": 6017,
    "\u0120dolphins": 36798,
    "India": 21569,
    "\u0120Bac": 35583,
    "\u0120Shopping": 39109,
    "\u0120prelim": 14541,
    "\u0120purported": 23236,
    "+,": 28200,
    "rax": 32040,
    "intelligence": 32683,
    "proclaimed": 39865,
    "ogun": 39918,
    "\u0120Crest": 40072,
    "\u0120paw": 41827,
    "\u0120turbulent": 42291,
    "\u0120magnificent": 25023,
    "\u0120CON": 7102,
    "politics": 34127,
    "boss": 42820,
    "\u0120downwards": 44890,
    "ger": 1362,
    "can": 5171,
    "Ser": 7089,
    "\u0120comedians": 43520,
    "\u0120Paso": 39245,
    "\u0120storms": 20228,
    "YL": 45448,
    "~~~~~~~~~~~~~~~~": 27156,
    "inus": 35237,
    "\u0120hay": 27678,
    "ilon": 33576,
    "\u0120Mam": 29926,
    "\u0120Infect": 26065,
    "\u0120Alison": 33629,
    "\u0120hair": 4190,
    "\u0120build": 1382,
    "\u0120unim": 28418,
    "\u0120light": 1657,
    "Deb": 16587,
    "^^": 18237,
    "KY": 31159,
    "\u0120parallel": 10730,
    "lead": 28230,
    "\u0120definitions": 17336,
    "Daily": 28545,
    "\u0120salvage": 32504,
    "\u0120Millions": 39830,
    "3333": 24840,
    "\u0120Ark": 9128,
    "\u0120reputable": 40300,
    "\u0120smugglers": 42876,
    "730": 43916,
    "\u0120pursue": 10660,
    "\u0120overlapping": 32997,
    "\u0120cheerful": 37999,
    "\u0120arcs": 44606,
    "oland": 23573,
    "\u0120Pearson": 31074,
    "\u0120Laure": 13826,
    "\u0120gaps": 17332,
    "aques": 46806,
    "\u0120suspects": 11826,
    "\u0120Yuri": 38450,
    "\u0120really": 1107,
    "\u0120hugged": 41130,
    "\u0120irrit": 14709,
    "stra": 12044,
    "Mike": 16073,
    "747": 48882,
    "\u0120rebuke": 45830,
    "ebus": 33209,
    "\u0120pod": 24573,
    "\u0120Fors": 27325,
    "hetto": 35619,
    "movie": 41364,
    "\u0120quarantine": 48827,
    "ug": 1018,
    "aneers": 33547,
    "endium": 49811,
    "Lat": 24220,
    "UST": 7759,
    "\u0120soared": 35292,
    "\u0120RD": 31475,
    "ienne": 37938,
    "arna": 28610,
    "\u0120dedicate": 39383,
    "\u0120certification": 18094,
    "\u0120THAT": 14603,
    "\u0120service": 2139,
    "Direct": 13470,
    "educated": 27317,
    "\u0120behaviour": 9172,
    "\u0120***": 17202,
    "\u0120Chase": 16346,
    "\u0120Alonso": 36345,
    "enario": 39055,
    "\u0120hugs": 40657,
    "Liter": 43460,
    "\u0120linked": 6692,
    "\u0120crou": 33838,
    "\u010a\u00c2\u0142": 44320,
    "\u0120immediately": 3393,
    "\u0120administered": 17169,
    "\u0120Bere": 37951,
    "ellect": 6879,
    "phthal": 48118,
    "\u0120Alternate": 42400,
    "lies": 13508,
    "\u0120flown": 22371,
    "\u0120adjunct": 44737,
    "\u0120dehydration": 47751,
    "\u0120Berm": 36967,
    "\u0120proposals": 11628,
    "\u0120Mirror": 17918,
    "\\\">": 38214,
    "\u0120unilateral": 37095,
    "\u0120gin": 39733,
    "cond": 17561,
    "\u0120subset": 24637,
    "\u0120Alger": 26832,
    "\u0120drawn": 7428,
    "\u0120stunned": 19987,
    "\u0120drown": 16398,
    "\u0120stocks": 14420,
    "\u0120unnatural": 33975,
    "\u0120construed": 30816,
    "\u0120spell": 4822,
    "xit": 10198,
    "\u0120disrupted": 30067,
    "review": 19023,
    "794": 50242,
    "\u0120Britt": 26036,
    "\u0120model": 2746,
    "machine": 30243,
    "\u0120flags": 9701,
    "clusion": 4717,
    "\u0120Median": 26178,
    "ails": 1768,
    "Better": 28971,
    "\u0120apparatus": 21152,
    "Medium": 31205,
    "\u0120rapt": 38404,
    "\u0120Grants": 40535,
    "Balance": 45866,
    "\u0120senator": 12329,
    "oggle": 20258,
    "ICK": 11860,
    "Texas": 21607,
    "\u0120Amber": 21896,
    "\u0120Deluxe": 21907,
    "liner": 24683,
    "\u0120coupon": 34990,
    "\u0120disguise": 27487,
    "\u0120Limbaugh": 43306,
    "\u0120gu": 915,
    "\u01201971": 16382,
    "elly": 6148,
    "\u0120labour": 10515,
    "\u0120paintings": 21641,
    "\u0120Optim": 30011,
    "\u0120transformative": 43590,
    ";}": 46956,
    "544": 47576,
    "\u0120nationality": 29835,
    "cies": 3171,
    "inates": 17540,
    "product": 11167,
    "gener": 8612,
    "\u0120cultured": 45847,
    "\u0120377": 42163,
    "\u0120exch": 9933,
    "\u0120Mysterious": 40981,
    "\u00c2\u0142\u00c2\u0142": 4603,
    "sson": 16528,
    "\u0120NEW": 12682,
    "\u0120favored": 19344,
    "\u00d6": 146,
    "\u0120stead": 7978,
    "\u0120SAR": 47341,
    "\u0120uncontrolled": 47913,
    "erence": 1945,
    "\u0120guarantees": 19026,
    "\u0120Conor": 41708,
    "\u0120SX": 44205,
    "\u0120told": 1297,
    "\u0120thinking": 3612,
    "\u0120statutes": 24895,
    "\u0120Abbey": 33128,
    "\u0120rift": 36788,
    "\u0120bump": 13852,
    "\u0120Creep": 41682,
    "izers": 11341,
    "\u0120heavier": 20140,
    "\u0120Likewise": 22660,
    "\u0120spectacle": 27519,
    "\u0120Memory": 14059,
    "\u0120vs": 3691,
    "osite": 5971,
    "\u0120Dum": 30933,
    "\u0120Congress": 3162,
    "\u0120annual": 5079,
    "\u0120criticised": 23894,
    "\u0120profession": 7573,
    "\u0120lineage": 31144,
    "\u0120Might": 24213,
    "018": 29159,
    "\u0120lawyers": 9326,
    "\u0120Celt": 16333,
    "\u0120intro": 18951,
    "\u0120ambulance": 22536,
    "\u0120proprietary": 20622,
    "\u0120composite": 24185,
    "gression": 32383,
    "\u0120promoter": 32972,
    "\u0120tion": 34222,
    "\u0120REALLY": 36413,
    "\u0120Wine": 20447,
    "Critics": 36623,
    "\u01201926": 38525,
    "\u0120furnace": 42227,
    "made": 9727,
    "Sand": 18471,
    "\u0120bluntly": 44514,
    "\u0120Discipline": 48532,
    "\u0120sod": 32581,
    "\u0120manure": 48577,
    "\u0120petty": 25229,
    "aucus": 16710,
    "\u0120Brookings": 44924,
    "\u0120crumble": 49478,
    "\u0120very": 845,
    "\u0120Virgin": 5283,
    "\u0120fridge": 25772,
    "ideshow": 42286,
    "JSON": 40386,
    "\u0120willful": 47860,
    "LLOW": 44765,
    "ful": 913,
    "\u0120CPU": 9135,
    "\u0120Unlike": 12101,
    "\u0120Manz": 37734,
    "\u0120incap": 17505,
    "\u0120detention": 13280,
    "\u0120receipt": 14507,
    "\u0120lawmaker": 31340,
    "\u0120components": 6805,
    "\u0120Illinois": 9486,
    "\u0120prevalent": 21854,
    "oldown": 15041,
    "\u0120handy": 15728,
    "\u0120lieutenant": 30269,
    "onge": 14220,
    "peat": 18267,
    "\u0120battalion": 36328,
    "EMP": 39494,
    "\u0120qualifiers": 40528,
    "TA": 5603,
    "\u0120rites": 41302,
    "Leod": 44559,
    "\u0120Cantor": 44577,
    "\u0120malnutrition": 49290,
    "\u0120pornography": 18384,
    "\u0120vou": 25211,
    "\u0120horrors": 26611,
    "So": 2396,
    "ado": 4533,
    "\u0120pronounced": 16293,
    "funded": 18246,
    "\u0120Rust": 17103,
    "riend": 1289,
    "\u0120Judiciary": 22351,
    "\u0120hyper": 8718,
    "\u0120celebrations": 22861,
    "daughter": 29642,
    "\u0120Monetary": 34112,
    "\u0120Gw": 39661,
    "opathy": 27189,
    "\u0120JPM": 40145,
    "\u0120QUEST": 43658,
    "\u0120waiter": 46612,
    "xes": 48169,
    "\u0120Brennan": 26577,
    "Red": 7738,
    "\u0120Bruins": 27607,
    "\u0120\"@": 44212,
    "\u0120denouncing": 45041,
    "\u0120Motorola": 31351,
    "tek": 35424,
    "Week": 20916,
    "\u0120341": 43155,
    "\u0120Tatt": 36711,
    "roup": 3233,
    "\u0120Commission": 4513,
    "\u0120Japanese": 4960,
    "\u0120gelatin": 49084,
    "\u0120tsun": 28798,
    "105": 13348,
    "Dean": 36372,
    "Vice": 47910,
    "\u0120cond": 1779,
    "AMD": 28075,
    "\u0120narrowing": 46426,
    "\u0120Lenovo": 40269,
    "redo": 48454,
    "\u0120Damien": 46107,
    "\u0120unjust": 21218,
    "\u0120coc": 8954,
    "NN": 6144,
    "\u0120void": 7951,
    "\u0120United": 1578,
    "phil": 28864,
    "\u0120Playboy": 43995,
    "\u0120Bureau": 9840,
    "sell": 7255,
    "\u0120coffin": 30834,
    "\u0120remainder": 17675,
    "\u0120*": 1635,
    "Jes": 22290,
    "294": 27696,
    "\u0120IB": 34782,
    "\u0120scanning": 21976,
    "PK": 40492,
    "icle": 1548,
    "\u0120mice": 10693,
    "\u0120Fischer": 30901,
    "\u0120Smithsonian": 40131,
    "zl": 48274,
    "\u0120Reporter": 25869,
    "imon": 20473,
    "\u0120BCE": 37078,
    "\u0120Eco": 38719,
    "\u0120spiral": 23642,
    "Creat": 16719,
    "\u0120informing": 29140,
    "\u0120analy": 4284,
    "\u0120soaking": 41714,
    "\u0120glean": 41881,
    "orned": 26994,
    "omet": 908,
    "\u0120scales": 16252,
    "\u0120interrog": 15054,
    "\u0120Habit": 41950,
    "ipher": 10803,
    "\u0120Methodist": 38029,
    "Bl": 3629,
    "\u0120pick": 2298,
    "\u0120noisy": 31210,
    "jam": 39159,
    "date": 4475,
    "earing": 6648,
    "\u0120Burst": 30635,
    "lect": 801,
    "IAL": 12576,
    "amen": 41763,
    "\u0120texted": 47358,
    "\u0120den": 2853,
    "\u0120caliber": 28139,
    "azi": 7761,
    "\u0120penal": 23634,
    "igrate": 42175,
    "\u0120Kuh": 46035,
    "process": 14681,
    "\u0120Vintage": 34057,
    "\u0120Fixed": 10832,
    "lection": 1564,
    "\u0120Huntington": 40644,
    "\u0120Jah": 48984,
    "\u0120contributions": 9284,
    "\u0120topp": 23126,
    "ights": 2337,
    "\u0120Chat": 24101,
    "once": 27078,
    "\u0120flawless": 38870,
    "ination": 1883,
    "\u0120indoctr": 41201,
    "Kal": 41428,
    "istas": 37503,
    "\u0120except": 2845,
    "irs": 17062,
    "\u0120SERVICE": 47453,
    "\u0120guts": 31875,
    "renches": 33650,
    "\u0120punished": 16851,
    "orious": 9982,
    "itus": 17506,
    "\u0120occupational": 34266,
    "\u0120tailored": 27571,
    "Draft": 37741,
    "\u0120DAY": 24644,
    "\u0120Gallery": 12917,
    "\u0120dick": 19317,
    "away": 8272,
    "\u00d0\u00bc": 43108,
    "\u0120hopping": 47153,
    "ok\u00c3\u00a9": 35861,
    "\u0120account": 1848,
    "\u0120OpenGL": 30672,
    "\u0120Plug": 22689,
    "student": 50139,
    "\u0120invested": 13356,
    "oku": 11601,
    "mix": 19816,
    "\u0120shipment": 28652,
    "\u0120Vit": 18271,
    "\u0120hostility": 23594,
    "sburg": 30359,
    "\u0120Therapy": 30878,
    "\u0120502": 47233,
    "\u0120mango": 49364,
    "\u0120econom": 1707,
    "\u0120hoops": 46730,
    "\u0120dated": 14567,
    "rys": 19753,
    "\u0120flashy": 43115,
    "sen": 6248,
    "\u0120cyn": 19768,
    "\u0120Caucas": 27292,
    "\u0120Arg": 20559,
    "za": 4496,
    "FOX": 47853,
    "\u0120Tall": 22676,
    "\u0120defends": 33446,
    "PC": 5662,
    "740": 45598,
    "\u0120fans": 3296,
    "\u0120Saint": 9281,
    "\u0120undertook": 45730,
    "Val": 7762,
    "\u0120depl": 38316,
    "\u0120Shar": 15465,
    "\u0120CONTIN": 43659,
    "\u0120Drum": 25331,
    "\u0120ties": 8470,
    "\u00c3\u0143": 8836,
    "gam": 28483,
    "pres": 18302,
    "\u0120prosper": 13983,
    "\u0120caval": 25820,
    "arth": 11999,
    "\u0120(%": 37633,
    "War": 13195,
    "\u0120Tex": 3567,
    "\u0120\u00e2\u0122\u00a2": 5595,
    "ursday": 3479,
    "\u0120paint": 7521,
    "\u0120Associate": 22669,
    "oct": 38441,
    "Bone": 49580,
    "\u0120Heath": 25846,
    "\u0120Morales": 36588,
    "\u0120info": 7508,
    "\u0120250": 8646,
    "\u0120view": 1570,
    "qqa": 28794,
    "\u0120contextual": 38356,
    "spirit": 38685,
    "\u0120socks": 24359,
    "RECT": 23988,
    "wake": 48530,
    "\u0120Snapchat": 31546,
    "\u0120decorated": 24789,
    "\u0120revolutionary": 12253,
    "ournament": 5138,
    "\u0120junk": 18556,
    "\u0120upload": 9516,
    "\u01201940": 16236,
    "\u0120carbohyd": 19476,
    "\u0120statistically": 19941,
    "\u0120sweat": 15488,
    "growing": 25167,
    "\u0120Samuel": 17100,
    "\u0120Tribe": 27804,
    "\u0120rebellious": 43860,
    "\u0120Baz": 47099,
    "CM": 24187,
    "\u0120dehuman": 48772,
    "Picture": 28070,
    "\"-": 26793,
    "\u0120Yel": 28876,
    "Myth": 41444,
    "\u0120Doc": 14432,
    "\u0120dismissal": 25693,
    "\u00d0\u00b8": 18849,
    "\u0120Congressman": 30700,
    "etheless": 12845,
    "\u0120delic": 8675,
    "cker": 15280,
    "\u0120Chaser": 39275,
    "ooters": 48316,
    "should": 21754,
    "ver": 332,
    "\u0120densely": 42255,
    "\u0120pend": 44017,
    "\u0120VT": 32751,
    "\u0120Females": 44727,
    "ek": 988,
    "\u0120Weir": 46669,
    "inton": 2371,
    "\u0120replaced": 6928,
    "\u0120Fun": 11138,
    "\u0120washing": 20518,
    "\u0120Lob": 32684,
    "\u0120ancient": 6156,
    "Ul": 47920,
    "anni": 31296,
    "\u0120Token": 29130,
    "\u00cf\u0122": 46582,
    "\u0120Standard": 8997,
    "Pic": 39507,
    "Fra": 49562,
    "\u0120sell": 3677,
    "550": 22730,
    "1981": 35411,
    "\u01202048": 36117,
    "\u0120Designs": 49282,
    "\u0120hed": 16418,
    "\u0120economic": 3034,
    "\u0120batted": 45754,
    "aji": 26436,
    "\u0120VIEW": 49880,
    "\u0120develop": 1205,
    "\u0120Leader": 10540,
    "\u0120Sessions": 15184,
    "\u0120certified": 15704,
    "\u0120brew": 9059,
    "Player": 14140,
    "\u0120shallow": 19337,
    "\u0120persistence": 30802,
    "\u0120White": 2635,
    "\u0120transition": 6801,
    "\u0120accumulate": 29915,
    "\u0120\u00e5": 10263,
    "touch": 29332,
    "Cour": 25877,
    "ieve": 12311,
    "proof": 13288,
    "\u0120Tucker": 25951,
    "\u0120Revenge": 24366,
    "335": 27326,
    "\u0120rewritten": 30101,
    "\u0120completing": 14339,
    "athetic": 18874,
    "ainer": 10613,
    "\u00e8\u00bf": 32573,
    "ss": 824,
    "pu": 19944,
    "\u0120optimization": 23989,
    "\u0120Icon": 26544,
    "\u0120hospitality": 33362,
    "\u0120Exclusive": 35651,
    "\u00bb\u0134": 36596,
    "\u0120blinded": 38497,
    "\u0120careg": 32386,
    "crete": 38669,
    "BD": 14529,
    "commit": 41509,
    "\u0120Hendricks": 42476,
    "\u0120Jes": 4804,
    "\u0120bacterial": 23462,
    "PRE": 46437,
    "\u0120Neural": 47986,
    "\u0120reinvest": 50135,
    "\u0120Exper": 8170,
    "\u0120sigh": 19680,
    "Leary": 48487,
    "name": 3672,
    "\u0120blanket": 18447,
    "\u0120subs": 6352,
    "\u0120CAM": 32421,
    "nov": 37302,
    "\u0120385": 44826,
    "ardless": 14694,
    "268": 25022,
    "OTE": 23051,
    "\u0120smart": 4451,
    "odox": 11430,
    "\u0120synchron": 18305,
    "\u0120backbone": 32774,
    "Particip": 34363,
    "\u0120officials": 2828,
    "\u0120Tim": 5045,
    "\u0120plaint": 13371,
    "isms": 6583,
    "\u0120acute": 14352,
    "\u0120Lakers": 19616,
    "ZX": 40692,
    "\u0120Out": 3806,
    "effic": 24531,
    "\u0120136": 21056,
    "\u0120comrades": 24863,
    "croft": 36714,
    "\u0120snug": 47032,
    "crow": 47114,
    "\u0120valve": 22580,
    "\u0120manufactures": 46306,
    "\u0120Basic": 14392,
    "planet": 47427,
    "\u0120Volvo": 46950,
    "\u0120Architecture": 29778,
    "ren": 918,
    "over": 2502,
    "\u0120executing": 23710,
    "\u0120handful": 10089,
    "\u0120Generally": 23904,
    "\u0120Patton": 40929,
    "\u0120The": 383,
    "\u0120distributing": 25950,
    "\u0120disproportionate": 30982,
    "cius": 28599,
    "\u0120exacerb": 22907,
    "\u0120Kraft": 41828,
    "undy": 45459,
    "\u0120Lambert": 36978,
    "\u0120(*": 20789,
    "\u0120Generator": 35986,
    "\u0120depletion": 42435,
    "\u0120hills": 18639,
    "\u0120Avenger": 45270,
    "APP": 24805,
    "Sunday": 21934,
    "\u0120SHE": 48052,
    "\u0120Contracts": 49199,
    "Invest": 19070,
    "\u0120Bark": 20511,
    "\u0120redef": 34087,
    "\u0120ITS": 42437,
    "\u0120lesser": 14494,
    "\u0120ignite": 44794,
    "holders": 10476,
    "\u0120ke": 885,
    "\u0120Sapphire": 35718,
    "Db": 43832,
    "\u0120principled": 48070,
    "\u0120Kiw": 40011,
    "\u0120Bott": 14835,
    "\u0120pitched": 21730,
    "\u0120Advertising": 40113,
    "UN": 4944,
    "President": 10364,
    "\u0120YOUR": 16592,
    "\u0120conce": 8571,
    "\u0120Su": 1778,
    "\u0120dive": 15647,
    "\u0120Sit": 21131,
    "121": 19244,
    "\u0120hurd": 22227,
    "\u0120Identified": 24517,
    "four": 14337,
    "\u0120Immun": 25445,
    "\u0120dunk": 35434,
    "\u0120campaigners": 35933,
    "feet": 39690,
    "\u0120utter": 10517,
    "\u0120handmade": 40973,
    "\u0120scissors": 41786,
    "cf": 12993,
    "\u0120Lent": 43751,
    "\u00e7": 163,
    "flo": 48679,
    "\u0120awkward": 13006,
    "\u0120developments": 13312,
    "\u0120Tate": 31376,
    "mpire": 35386,
    "\u0120armor": 8328,
    "\u0120Easter": 20111,
    "\u0120GUI": 25757,
    "Vote": 37394,
    "\u0120Corinthians": 39546,
    "ificantly": 42491,
    "Per": 5990,
    "\u0120Prov": 7518,
    "\u0120Pyrrha": 34386,
    "\u0120discern": 22024,
    "\u0120RNC": 37570,
    "trade": 25351,
    "stice": 43788,
    "\u0120proc": 13834,
    "\u0120nost": 18216,
    "\u0120HOUSE": 46586,
    "\u0120outpatient": 49335,
    "velop": 1091,
    "incinnati": 15130,
    "\u0120superf": 21176,
    "court": 22230,
    "\u0120305": 32747,
    "\u0120invoice": 45458,
    "\u0120rise": 4485,
    "\u0120dashboard": 30415,
    "Und": 31319,
    "YA": 44947,
    "\u0120Pos": 18574,
    "\u0120bilingual": 48116,
    "\u0120linemen": 41683,
    "\u0120harmonic": 49239,
    "\u0120removing": 10829,
    "allo": 49457,
    "\u0120charitable": 21803,
    "\u0120ranger": 43570,
    "atern": 9205,
    "\u0120Raider": 31423,
    "scripts": 46521,
    "\u0120Past": 11303,
    "\u0120Abdul": 23547,
    "\u0120Technician": 46986,
    "gra": 46784,
    "continental": 35415,
    "\u0120confounding": 43849,
    "ANS": 15037,
    "\u0120epit": 21240,
    "\u0120Protective": 45004,
    "\u0120phot": 2825,
    "\u0120Western": 4885,
    "\u0120jurisdiction": 12934,
    "\u0120resent": 20315,
    "agara": 38415,
    "\u0120theory": 4583,
    "\u0120Dates": 44712,
    "\u0120WHERE": 33411,
    "\u0120sprite": 33810,
    "\u0120improved": 6596,
    "\u0120Planet": 11397,
    "\u0120heightened": 25556,
    "\u0120Ao": 27378,
    "Basically": 31524,
    "\u0120blur": 23671,
    "\u0120altru": 37677,
    "intendent": 21075,
    "\u0120reass": 12719,
    "igo": 14031,
    "\u0120doubts": 17188,
    "osaurus": 47650,
    "\u0120undersc": 27840,
    "\u0120wrongly": 31238,
    "\u0120stadium": 10308,
    "\u0120Victim": 38901,
    "\u0120None": 6045,
    "GEN": 35353,
    "Chair": 43189,
    "\u0120Gamb": 33330,
    "awaru": 39008,
    "\u0120order": 1502,
    "\u0120Kick": 10279,
    "\u0120hasn": 5818,
    "\u0120apart": 5475,
    "Indeed": 17854,
    "iovascular": 19381,
    "Friends": 36705,
    "\u0120blackout": 45939,
    "ids": 2340,
    "\u0120loneliness": 37378,
    "duc": 6077,
    "\u0120consume": 15000,
    "\u0120fungus": 39526,
    "\u0120haste": 36797,
    "\u0120raiding": 48717,
    "\u0120Joey": 26154,
    "anguage": 9000,
    "\u0120res": 581,
    "\u0120GROUP": 44441,
    "\u0120Darius": 47129,
    "\u0120Shirt": 45180,
    "\u0120feast": 26951,
    "\u0120balances": 25223,
    "Grand": 23581,
    "\u0120specimen": 31674,
    "\u0120outlined": 16493,
    "\u0120anew": 44951,
    "\u0120centr": 27435,
    "\u0120somebody": 8276,
    "\u0120vi": 25357,
    "\u0120standout": 35482,
    "\u0120normal": 3487,
    "iting": 1780,
    "\u0120Krypt": 44679,
    "\u0120lobb": 14194,
    "\u0120whispering": 48508,
    "olls": 33421,
    "\u0120Robotics": 47061,
    "ning": 768,
    "\u0120leveling": 34661,
    "\u0120crises": 25712,
    "/\"": 30487,
    "ande": 40004,
    "\u0120sailor": 43272,
    "mini": 45313,
    "\u0120guess": 4724,
    "\u0120Email": 9570,
    "place": 5372,
    "\u0120employs": 24803,
    "ynt": 33567,
    "\u0120Admiral": 24646,
    "\u0120bakery": 38164,
    "EE": 6500,
    "ipop": 42800,
    "\u0120Dupl": 49821,
    "\u0120collaborate": 30081,
    "\u0120brightly": 35254,
    "327": 34159,
    "Fif": 44403,
    "\u0120height": 6001,
    "\u00e9\u0139\u013a": 42234,
    "\u0120ECO": 39031,
    "\u0120faded": 24887,
    "bb": 11848,
    "\u0120Doe": 31780,
    "\u0120d\u00c3\u00a9": 39073,
    "Without": 16249,
    "\u0120wheelchair": 27181,
    "ged": 2004,
    "\u0120inventor": 33475,
    "LG": 41257,
    "\u0120bree": 20780,
    "\u0120wont": 28329,
    "\u0120sent": 1908,
    "xt": 742,
    "\u0120shuff": 32299,
    "\u0120amput": 40338,
    "zona": 7551,
    "\u0120development": 2478,
    "):": 2599,
    "\u0120terms": 2846,
    "roll": 2487,
    "ura": 5330,
    "\u0120Block": 9726,
    "fulness": 15538,
    "\u0120haun": 17791,
    "\u0120Apost": 19295,
    "\u0120retaining": 26645,
    "\u0120blackmail": 32625,
    "Station": 12367,
    "\u00c5\u00a1": 32790,
    "\u0120sexually": 11363,
    "\u0120Hamb": 26175,
    "\u0120OPS": 40490,
    "\u0120contaminants": 46983,
    "HAEL": 47452,
    "Tr": 2898,
    "\u0120have": 423,
    "fund": 10990,
    "\u0120admon": 37202,
    "\u0120championships": 27459,
    "\u0120Cth": 34901,
    "\u0120millennial": 46451,
    "\u0113": 207,
    "highly": 47444,
    "patient": 26029,
    "house": 4803,
    "\u0120soundtrack": 21751,
    "\u0120coales": 46064,
    "\u0120Engine": 7117,
    "\u0120major": 1688,
    "\u0120stock": 4283,
    "Arc": 24021,
    "\u0120painfully": 32258,
    "\u0120filming": 17691,
    "\u0120SHOW": 37041,
    "\u0120provisional": 37042,
    "\u0120JA": 41722,
    "\u0120Balloon": 47821,
    "asures": 13846,
    "illa": 5049,
    "\u0120resolutions": 21811,
    "vil": 2991,
    "ugen": 42740,
    "sama": 33843,
    "\u0120DISTR": 34957,
    "\u0120experience": 1998,
    "\u0120detect": 4886,
    "acerb": 22428,
    "\u0120upheld": 24816,
    "\u0120sits": 10718,
    "\u0120Retail": 26702,
    "\u0120config": 4566,
    "\u0120dispro": 15493,
    "\u0120presented": 5545,
    "aer": 25534,
    "\u0120Humph": 32787,
    "\u0120certs": 27802,
    "\u0120NK": 46465,
    "\u0120advantage": 4621,
    "\u0120demographics": 30084,
    "\u0120bras": 48029,
    "ricks": 23706,
    "\u0120separate": 4553,
    "\u0120bond": 6314,
    "Join": 18234,
    "\u00c5\u00ab": 20317,
    "\u0120max": 3509,
    "\u0120Grey": 13980,
    "\u0120deer": 20096,
    "\u0120Dul": 42148,
    "\u0120exceptions": 13269,
    "365": 24760,
    "\u0120robe": 33192,
    "\u0120nitrogen": 23417,
    "ifferent": 17125,
    "Reward": 48123,
    "\u0120Dwight": 29902,
    "\u0120Islamists": 34434,
    "tains": 12143,
    "\u0120side": 1735,
    "\u0120Vice": 11079,
    "\u00e3\u0125\u013a": 23363,
    "\u0120preserving": 23934,
    "\u0120unarmed": 24270,
    "\u0120attent": 32649,
    ".,": 1539,
    "\u0120Seven": 13723,
    "'),": 33809,
    "\u0120incess": 41106,
    "157": 18458,
    "\u0120Defence": 16721,
    "\u0120cathedral": 41756,
    "\u0120betrayal": 29355,
    "\u0120beads": 36116,
    "\u0120attaching": 39550,
    "43": 3559,
    "\u0120patience": 16336,
    "\u0120Made": 14446,
    "\u0120drugs": 5010,
    "Ger": 38069,
    "ymm": 26621,
    "\u0120reneg": 30780,
    "\u0120seminars": 44160,
    "\u0120wrecked": 44770,
    "\u0120conserv": 4055,
    "environment": 38986,
    "\u0120Robot": 16071,
    "AY": 4792,
    "\u0120CPR": 42920,
    "\u0120sack": 23704,
    "\u0120Steps": 32144,
    "ruct": 1356,
    "\u0120preventive": 37197,
    "\u0120organis": 13867,
    "\u0120classroom": 15806,
    "\u0120Lans": 34176,
    "istar": 47229,
    "\u0120Colorado": 7492,
    "technical": 47944,
    "\u0120Seaf": 49967,
    "\u0120advocacy": 15364,
    "\u0120openness": 30913,
    "\u0120cotton": 15985,
    "\u0120Wallet": 37249,
    "\u0120glances": 48703,
    "repe": 45956,
    "Boo": 46120,
    "GPU": 33346,
    "\u0120concepts": 10838,
    "ulpt": 13327,
    "\u0120archaic": 40435,
    "Ward": 49021,
    "\u0120unsigned": 22165,
    "''": 7061,
    "imation": 18991,
    "797": 44673,
    "\u0120Falling": 42914,
    "\u0120Marc": 13067,
    "\u0120might": 1244,
    "\u0120Shake": 41113,
    "\u0120breakthrough": 19304,
    "\u0120Krist": 14912,
    "clus": 2527,
    "\u0120celebrity": 16527,
    "Federal": 24099,
    "You": 1639,
    "\":[": 20598,
    "\u0120plotting": 29353,
    "Her": 9360,
    "\u0120Hom": 8074,
    "\u0120organizational": 26564,
    "\u0120loosen": 40953,
    "\u0120posted": 4481,
    "ET": 2767,
    "\u0120lease": 15278,
    "\u0120burg": 15601,
    "\u0120hydra": 25039,
    "\u0120Oliver": 15416,
    "onder": 8623,
    "Rock": 19665,
    "\u0120slut": 33526,
    "\u0120UEFA": 40858,
    "\u0120nineteen": 43063,
    "ighthouse": 32303,
    "cession": 43914,
    "\u0120inside": 2641,
    "\u0120Vet": 49744,
    "\u0120minutes": 2431,
    "\u0120snack": 26906,
    "sch": 20601,
    "ashed": 5263,
[...]
